<unk>	0
<s>	0
</s>	0
▁t	-0
he	-1
▁a	-2
in	-3
▁s	-4
▁the	-5
▁w	-6
re	-7
▁o	-8
▁m	-9
er	-10
▁b	-11
ou	-12
nd	-13
▁f	-14
ing	-15
▁I	-16
ed	-17
▁c	-18
it	-19
or	-20
at	-21
is	-22
▁h	-23
▁d	-24
es	-25
▁l	-26
▁to	-27
en	-28
▁p	-29
ar	-30
▁of	-31
as	-32
ll	-33
on	-34
an	-35
▁and	-36
▁in	-37
▁th	-38
▁n	-39
▁g	-40
▁T	-41
▁y	-42
le	-43
om	-44
▁e	-45
ow	-46
▁be	-47
ve	-48
ut	-49
▁you	-50
▁on	-51
st	-52
▁he	-53
ld	-54
▁st	-55
▁W	-56
ot	-57
ver	-58
ad	-59
ac	-60
▁my	-61
ay	-62
et	-63
▁The	-64
gh	-65
ic	-66
im	-67
▁A	-68
▁was	-69
ly	-70
▁.	-71
al	-72
▁it	-73
id	-74
▁re	-75
▁u	-76
ent	-77
ir	-78
ur	-79
▁[	-80
▁]	-81
ke	-82
▁for	-83
▁is	-84
se	-85
▁r	-86
▁li	-87
ith	-88
ion	-89
ill	-90
▁me	-91
oo	-92
am	-93
▁S	-94
▁with	-95
▁wor	-96
ght	-97
..	-98
▁wh	-99
▁that	-100
▁an	-101
ain	-102
▁se	-103
▁ha	-104
op	-105
▁H	-106
red	-107
all	-108
▁B	-109
▁we	-110
un	-111
▁k	-112
▁as	-113
▁his	-114
ter	-115
▁sh	-116
▁not	-117
ess	-118
ce	-119
▁,	-120
ore	-121
ds	-122
ri	-123
ro	-124
ast	-125
her	-126
rom	-127
ear	-128
▁at	-129
ust	-130
il	-131
ch	-132
▁de	-133
▁F	-134
▁ne	-135
▁C	-136
th	-137
▁ch	-138
ould	-139
▁your	-140
▁WP	-141
▁so	-142
pp	-143
▁but	-144
ers	-145
▁one	-146
▁M	-147
▁Y	-148
ack	-149
ct	-150
rou	-151
um	-152
ight	-153
very	-154
one	-155
▁from	-156
▁out	-157
fe	-158
▁this	-159
ate	-160
us	-161
▁j	-162
▁do	-163
▁her	-164
ck	-165
el	-166
▁kn	-167
▁N	-168
▁1	-169
and	-170
▁ab	-171
▁v	-172
▁It	-173
▁no	-174
▁whe	-175
▁D	-176
est	-177
ide	-178
▁are	-179
▁int	-180
▁L	-181
ood	-182
ory	-183
out	-184
▁You	-185
▁E	-186
rit	-187
way	-188
▁lo	-189
ant	-190
ome	-191
▁al	-192
▁up	-193
00	-194
▁P	-195
▁fe	-196
▁have	-197
▁they	-198
▁their	-199
pt	-200
ul	-201
▁had	-202
▁le	-203
▁or	-204
ime	-205
▁all	-206
ss	-207
▁man	-208
ge	-209
▁like	-210
ak	-211
ame	-212
▁He	-213
ra	-214
ies	-215
ind	-216
▁go	-217
em	-218
▁by	-219
▁pe	-220
▁will	-221
▁'	-222
...	-223
art	-224
ble	-225
▁su	-226
ist	-227
▁am	-228
▁mo	-229
▁sp	-230
▁into	-231
▁ex	-232
▁sa	-233
qu	-234
ous	-235
▁Th	-236
▁bl	-237
▁pl	-238
▁po	-239
▁words	-240
ie	-241
if	-242
own	-243
▁time	-244
▁G	-245
ake	-246
ook	-247
▁fl	-248
hing	-249
ation	-250
ep	-251
▁O	-252
▁story	-253
nt	-254
ong	-255
hed	-256
ine	-257
▁com	-258
▁every	-259
▁day	-260
ark	-261
▁sc	-262
▁can	-263
▁con	-264
ry	-265
ure	-266
▁bo	-267
▁co	-268
▁him	-269
▁them	-270
ard	-271
ink	-272
ople	-273
ap	-274
▁ag	-275
▁has	-276
▁know	-277
▁people	-278
lf	-279
urn	-280
▁FF	-281
reat	-282
▁100	-283
▁who	-284
▁would	-285
ved	-286
ally	-287
▁been	-288
▁year	-289
co	-290
▁R	-291
ity	-292
▁cl	-293
▁back	-294
▁just	-295
▁were	-296
▁world	-297
ive	-298
▁now	-299
▁when	-300
▁-	-301
▁And	-302
▁look	-303
ace	-304
▁em	-305
fore	-306
▁what	-307
ree	-308
ven	-309
▁sk	-310
▁us	-311
▁life	-312
ell	-313
tle	-314
▁Wh	-315
▁un	-316
rite	-317
rough	-318
▁over	-319
**	-320
ol	-321
ach	-322
ort	-323
▁ro	-324
▁any	-325
▁pre	-326
ft	-327
ue	-328
ire	-329
▁St	-330
▁only	-331
▁about	-332
iz	-333
ild	-334
▁In	-335
ass	-336
ick	-337
▁gr	-338
▁sl	-339
▁But	-340
▁dis	-341
▁down	-342
▁never	-343
▁there	-344
▁before	-345
ves	-346
▁sm	-347
▁tr	-348
other	-349
▁last	-350
▁again	-351
▁still	-352
▁through	-353
ig	-354
pl	-355
ice	-356
▁cr	-357
self	-358
ther	-359
▁get	-360
▁old	-361
▁see	-362
▁wat	-363
▁could	-364
ag	-365
be	-366
▁U	-367
our	-368
ings	-369
side	-370
round	-371
are	-372
ath	-373
ile	-374
ose	-375
▁qu	-376
ways	-377
ull	-378
▁My	-379
▁im	-380
irst	-381
▁dark	-382
▁turn	-383
▁want	-384
▁other	-385
au	-386
act	-387
ang	-388
ite	-389
▁dr	-390
▁tw	-391
less	-392
ting	-393
ving	-394
▁hum	-395
▁she	-396
▁too	-397
▁where	-398
ip	-399
ise	-400
▁did	-401
▁end	-402
▁way	-403
▁feel	-404
▁love	-405
▁some	-406
orn	-407
ren	-408
▁We	-409
▁gl	-410
ream	-411
▁saw	-412
▁think	-413
os	-414
ect	-415
▁No	-416
▁en	-417
▁ke	-418
able	-419
nder	-420
ness	-421
▁lit	-422
▁away	-423
ans	-424
hes	-425
▁sw	-426
▁off	-427
▁happ	-428
▁left	-429
▁then	-430
▁light	-431
te	-432
ade	-433
ank	-434
hen	-435
▁So	-436
▁br	-437
ance	-438
fter	-439
▁They	-440
▁long	-441
▁more	-442
▁work	-443
▁night	-444
▁years	-445
dd	-446
ave	-447
ich	-448
ied	-449
▁ac	-450
ated	-451
▁how	-452
▁our	-453
▁rem	-454
▁being	-455
▁first	-456
▁always	-457
dy	-458
wn	-459
int	-460
ish	-461
led	-462
nds	-463
ple	-464
und	-465
:...	-466
ents	-467
▁bet	-468
▁new	-469
▁Write	-470
alk	-471
ence	-472
ious	-473
unch	-474
▁app	-475
▁This	-476
▁cont	-477
▁than	-478
ething	-479
▁little	-480
day	-481
inn	-482
▁fo	-483
ions	-484
ough	-485
reak	-486
▁des	-487
▁pro	-488
▁war	-489
▁here	-490
▁many	-491
riting	-492
▁inside	-493
omething	-494
ab	-495
ff	-496
▁Be	-497
▁te	-498
ared	-499
arth	-500
iver	-501
▁His	-502
▁bec	-503
▁fin	-504
▁sky	-505
▁most	-506
▁must	-507
▁pain	-508
▁real	-509
▁sent	-510
▁start	-511
de	-512
iv	-513
ary	-514
ber	-515
▁As	-516
▁CW	-517
▁jo	-518
▁She	-519
▁beg	-520
▁its	-521
▁good	-522
▁seco	-523
▁stop	-524
▁Every	-525
ci	-526
gg	-527
ye	-528
cre	-529
ict	-530
les	-531
ool	-532
uck	-533
ount	-534
▁dra	-535
▁let	-536
▁mom	-537
▁sur	-538
▁door	-539
▁need	-540
▁take	-541
▁after	-542
▁child	-543
▁human	-544
▁around	-545
``	-546
ia	-547
▁i	-548
age	-549
ail	-550
▁**	-551
▁``	-552
▁ad	-553
llow	-554
▁say	-555
▁str	-556
thing	-557
▁even	-558
▁ever	-559
▁head	-560
▁hund	-561
▁kill	-562
▁make	-563
▁read	-564
▁There	-565
▁looked	-566
▁hundred	-567
▁something	-568
ew	-569
▁J	-570
ars	-571
igh	-572
ost	-573
per	-574
ched	-575
here	-576
ound	-577
read	-578
ross	-579
▁For	-580
▁che	-581
▁set	-582
▁What	-583
▁inst	-584
▁turned	-585
▁without	-586
og	-587
sp	-588
▁2	-589
ase	-590
ced	-591
ful	-592
ock	-593
old	-594
ove	-595
▁On	-596
▁if	-597
ment	-598
ower	-599
▁mon	-600
▁spe	-601
▁sun	-602
ction	-603
inner	-604
ought	-605
rompt	-606
▁That	-607
▁When	-608
▁dead	-609
▁fore	-610
▁hand	-611
▁keep	-612
▁pers	-613
▁Break	-614
▁blood	-615
▁thing	-616
▁under	-617
av	-618
aw	-619
ze	-620
ssi	-621
ted	-622
▁ev	-623
▁mu	-624
▁wa	-625
ntil	-626
▁All	-627
▁Ind	-628
▁att	-629
▁few	-630
▁mus	-631
ather	-632
vered	-633
▁char	-634
▁come	-635
▁fall	-636
▁gone	-637
▁past	-638
▁seem	-639
ations	-640
▁place	-641
▁right	-642
▁these	-643
▁those	-644
▁water	-645
▁which	-646
▁person	-647
▁scream	-648
▁things	-649
▁another	-650
ms	-651
ty	-652
▁V	-653
ors	-654
ped	-655
pen	-656
▁Un	-657
▁gu	-658
ears	-659
fast	-660
ical	-661
▁...	-662
▁gre	-663
ating	-664
ching	-665
ished	-666
ories	-667
▁With	-668
▁body	-669
▁less	-670
▁made	-671
▁once	-672
▁open	-673
▁play	-674
▁wind	-675
▁Earth	-676
▁Lunch	-677
▁death	-678
▁great	-679
▁heart	-680
▁small	-681
▁thought	-682
▁Breakfast	-683
me	-684
ru	-685
▁(	-686
▁*	-687
bye	-688
cri	-689
ian	-690
▁''	-691
▁Ch	-692
▁To	-693
▁ar	-694
▁bu	-695
▁gi	-696
ards	-697
ouse	-698
pped	-699
▁bot	-700
▁cur	-701
▁ent	-702
▁fam	-703
▁imp	-704
▁mem	-705
▁per	-706
▁sim	-707
▁yet	-708
atter	-709
▁each	-710
▁free	-711
▁live	-712
▁rain	-713
▁room	-714
▁sing	-715
▁black	-716
▁breat	-717
▁short	-718
▁Dinner	-719
▁happen	-720
▁moment	-721
▁should	-722
'.	-723
br	-724
ts	-725
ces	-726
ead	-727
mer	-728
ows	-729
vel	-730
▁aw	-731
▁ey	-732
▁pr	-733
▁wr	-734
akes	-735
cess	-736
ches	-737
ress	-738
▁car	-739
▁die	-740
▁dri	-741
▁fut	-742
▁sat	-743
▁two	-744
▁win	-745
cribe	-746
ually	-747
▁does	-748
▁dust	-749
▁mind	-750
▁name	-751
▁seen	-752
▁walk	-753
▁word	-754
▁going	-755
▁until	-756
▁writing	-757
▁darkness	-758
▁sentence	-759
.'	-760
bl	-761
bo	-762
als	-763
aut	-764
ets	-765
ife	-766
iss	-767
oke	-768
ror	-769
ten	-770
▁ma	-771
ands	-772
ange	-773
cept	-774
ired	-775
ject	-776
▁beh	-777
▁mas	-778
▁min	-779
▁own	-780
▁sou	-781
ities	-782
owing	-783
▁eyes	-784
▁fear	-785
▁find	-786
▁knew	-787
▁plan	-788
▁said	-789
▁same	-790
▁stre	-791
▁upon	-792
▁used	-793
▁very	-794
rompts	-795
▁house	-796
▁possi	-797
▁power	-798
▁write	-799
▁across	-800
▁better	-801
▁enough	-802
▁realiz	-803
▁nothing	-804
▁screamed	-805
io	-806
▁3	-807
▁6	-808
▁K	-809
app	-810
bed	-811
ene	-812
ial	-813
iew	-814
ign	-815
ike	-816
ily	-817
ins	-818
irl	-819
ken	-820
ond	-821
ons	-822
orm	-823
ult	-824
▁el	-825
▁vo	-826
bble	-827
earn	-828
ever	-829
ited	-830
tern	-831
ying	-832
▁How	-833
▁bro	-834
▁put	-835
▁sub	-836
▁ten	-837
▁tri	-838
▁why	-839
where	-840
▁Then	-841
▁blue	-842
▁cold	-843
▁comp	-844
▁fing	-845
▁game	-846
▁hear	-847
▁part	-848
▁pull	-849
▁told	-850
▁loved	-851
▁point	-852
▁today	-853
▁while	-854
▁white	-855
▁follow	-856
▁future	-857
▁seconds	-858
▁started	-859
▁yourself	-860
az	-861
hy	-862
ps	-863
we	-864
air	-865
alf	-866
aps	-867
idd	-868
iet	-869
ord	-870
ron	-871
row	-872
▁AD	-873
▁At	-874
▁De	-875
ains	-876
aves	-877
bers	-878
erri	-879
fect	-880
haps	-881
ield	-882
imin	-883
ward	-884
▁Des	-885
▁Not	-886
▁Per	-887
▁Why	-888
▁cle	-889
▁cre	-890
▁dif	-891
▁far	-892
▁ord	-893
▁red	-894
▁ret	-895
▁use	-896
▁Good	-897
▁able	-898
▁deep	-899
▁died	-900
▁dist	-901
▁emot	-902
▁four	-903
▁high	-904
▁home	-905
▁much	-906
▁pass	-907
▁warm	-908
▁beaut	-909
▁learn	-910
▁least	-911
▁three	-912
▁single	-913
▁covered	-914
▁children	-915
▁everything	-916
cl	-917
ef	-918
ey	-919
pr	-920
▁4	-921
▁8	-922
amp	-923
com	-924
els	-925
ier	-926
ird	-927
ked	-928
sid	-929
ung	-930
▁Sh	-931
▁ho	-932
▁la	-933
ause	-934
ered	-935
ians	-936
ines	-937
leep	-938
rent	-939
ters	-940
vers	-941
▁Now	-942
▁ago	-943
▁bat	-944
▁bel	-945
▁boy	-946
▁del	-947
▁dep	-948
▁eas	-949
▁ele	-950
▁exp	-951
▁fac	-952
▁gra	-953
▁pur	-954
▁rep	-955
▁sin	-956
▁ste	-957
aught	-958
ently	-959
wards	-960
▁clou	-961
▁comm	-962
▁drop	-963
▁empt	-964
▁fire	-965
▁flaw	-966
▁give	-967
▁goes	-968
▁lost	-969
▁move	-970
▁ones	-971
▁side	-972
▁slow	-973
▁view	-974
▁began	-975
▁count	-976
▁creat	-977
▁disco	-978
▁dream	-979
▁glass	-980
▁thous	-981
▁became	-982
▁behind	-983
▁comple	-984
▁contin	-985
▁second	-986
▁instead	-987
▁looking	-988
▁Describe	-989
ix	-990
od	-991
so	-992
uc	-993
xt	-994
▁5	-995
▁?	-996
ens	-997
ert	-998
esh	-999
hip	-1000
its	-1001
ray	-1002
ual	-1003
ugg	-1004
▁An	-1005
▁Bl	-1006
▁If	-1007
▁ca	-1008
▁ph	-1009
▁pu	-1010
aded	-1011
alls	-1012
ciet	-1013
cked	-1014
enty	-1015
ling	-1016
most	-1017
ning	-1018
ping	-1019
ures	-1020
▁**1	-1021
▁bed	-1022
▁bur	-1023
▁cho	-1024
▁ext	-1025
▁flo	-1026
▁fro	-1027
▁fun	-1028
▁job	-1029
▁num	-1030
▁ref	-1031
▁rel	-1032
▁run	-1033
▁ser	-1034
▁squ	-1035
▁tim	-1036
▁ton	-1037
ained	-1038
anced	-1039
aring	-1040
iness	-1041
▁Your	-1042
▁anim	-1043
▁best	-1044
▁came	-1045
▁expl	-1046
▁fill	-1047
▁mach	-1048
▁mill	-1049
▁morn	-1050
▁prec	-1051
▁rest	-1052
▁self	-1053
▁skin	-1054
▁took	-1055
ention	-1056
▁above	-1057
▁appro	-1058
▁diffe	-1059
▁empty	-1060
▁fight	-1061
▁final	-1062
▁green	-1063
▁happy	-1064
▁month	-1065
▁music	-1066
▁quest	-1067
▁quiet	-1068
▁shall	-1069
▁sleep	-1070
▁stood	-1071
▁anyone	-1072
▁charac	-1073
▁longer	-1074
▁societ	-1075
▁wanted	-1076
▁drabble	-1077
▁feeling	-1078
▁himself	-1079
▁machine	-1080
ek	-1081
ph	-1082
to	-1083
ann	-1084
ash	-1085
ats	-1086
cid	-1087
ged	-1088
get	-1089
ili	-1090
org	-1091
rat	-1092
use	-1093
wor	-1094
zen	-1095
▁17	-1096
▁Al	-1097
▁IP	-1098
▁Le	-1099
▁sy	-1100
ates	-1101
dden	-1102
ices	-1103
iful	-1104
ists	-1105
ones	-1106
ract	-1107
rees	-1108
ster	-1109
ween	-1110
▁Mar	-1111
▁act	-1112
▁air	-1113
▁bri	-1114
▁col	-1115
▁cop	-1116
▁cou	-1117
▁cra	-1118
▁cry	-1119
▁got	-1120
▁gun	-1121
▁hel	-1122
▁hor	-1123
▁mar	-1124
▁may	-1125
▁met	-1126
▁sea	-1127
▁swe	-1128
▁try	-1129
actly	-1130
ences	-1131
ering	-1132
hered	-1133
icide	-1134
imate	-1135
isely	-1136
▁bene	-1137
▁book	-1138
▁brou	-1139
▁cool	-1140
▁corn	-1141
▁dest	-1142
▁five	-1143
▁flow	-1144
▁form	-1145
▁full	-1146
▁girl	-1147
▁hard	-1148
▁kept	-1149
▁lead	-1150
▁mess	-1151
▁sold	-1152
▁soon	-1153
▁surv	-1154
▁talk	-1155
▁tree	-1156
▁true	-1157
anding	-1158
▁alive	-1159
▁chang	-1160
▁drink	-1161
▁event	-1162
▁flesh	-1163
▁found	-1164
▁knife	-1165
▁makes	-1166
▁secre	-1167
▁since	-1168
▁storm	-1169
▁breath	-1170
▁broken	-1171
▁elimin	-1172
▁frozen	-1173
▁leaves	-1174
▁matter	-1175
▁mother	-1176
▁myself	-1177
▁planet	-1178
▁really	-1179
▁window	-1180
▁Goodbye	-1181
▁Indians	-1182
▁Perhaps	-1183
▁against	-1184
▁beating	-1185
▁brother	-1186
▁brought	-1187
▁emotion	-1188
▁fingers	-1189
▁forever	-1190
▁followed	-1191
▁happened	-1192
▁different	-1193
▁precisely	-1194
01	-1195
ne	-1196
oc	-1197
oy	-1198
su	-1199
ud	-1200
▁/	-1201
▁z	-1202
amn	-1203
cap	-1204
cus	-1205
dit	-1206
lex	-1207
llo	-1208
oot	-1209
ope	-1210
ote	-1211
rop	-1212
urt	-1213
wer	-1214
▁CE	-1215
▁OT	-1216
▁Oh	-1217
▁Or	-1218
▁Tw	-1219
▁ap	-1220
▁et	-1221
▁ob	-1222
▁ru	-1223
ames	-1224
augh	-1225
avor	-1226
ital	-1227
ized	-1228
lyde	-1229
ours	-1230
outh	-1231
▁Red	-1232
▁Yes	-1233
▁adv	-1234
▁age	-1235
▁bas	-1236
▁bus	-1237
▁cal	-1238
▁cut	-1239
▁def	-1240
▁guy	-1241
▁loc	-1242
▁max	-1243
▁men	-1244
▁opp	-1245
▁pan	-1246
▁pot	-1247
▁pri	-1248
▁rhy	-1249
▁sch	-1250
▁sil	-1251
▁tou	-1252
▁tra	-1253
▁vis	-1254
▁wiz	-1255
aking	-1256
ipped	-1257
lease	-1258
nding	-1259
uring	-1260
▁Borg	-1261
▁Tell	-1262
▁care	-1263
▁cast	-1264
▁damn	-1265
▁days	-1266
▁done	-1267
▁embr	-1268
▁face	-1269
▁gets	-1270
▁hold	-1271
▁king	-1272
▁list	-1273
▁mark	-1274
▁meet	-1275
▁pock	-1276
▁shad	-1277
▁soul	-1278
▁well	-1279
▁writ	-1280
ardian	-1281
earing	-1282
iverse	-1283
▁Clyde	-1284
▁India	-1285
▁Thank	-1286
▁bring	-1287
▁build	-1288
▁doing	-1289
▁etern	-1290
▁exist	-1291
▁heard	-1292
▁leave	-1293
▁might	-1294
▁mouth	-1295
▁ready	-1296
▁seems	-1297
▁tears	-1298
▁third	-1299
▁trees	-1300
▁using	-1301
ination	-1302
▁almost	-1303
▁battle	-1304
▁change	-1305
▁choice	-1306
▁clouds	-1307
▁corner	-1308
▁orders	-1309
▁possib	-1310
▁simple	-1311
▁slowly	-1312
▁stared	-1313
▁surviv	-1314
▁within	-1315
▁Without	-1316
▁beneath	-1317
▁growing	-1318
▁realize	-1319
▁society	-1320
▁stopped	-1321
▁stories	-1322
▁suicide	-1323
▁towards	-1324
▁actually	-1325
▁complete	-1326
▁thousand	-1327
▁watching	-1328
▁beautiful	-1329
OU	-1330
UU	-1331
ee	-1332
ky	-1333
li	-1334
▁:	-1335
▁X	-1336
000	-1337
cul	-1338
elt	-1339
ges	-1340
hat	-1341
ief	-1342
ilt	-1343
iny	-1344
ior	-1345
isp	-1346
ots	-1347
uff	-1348
uly	-1349
▁AI	-1350
▁Ex	-1351
▁da	-1352
▁pa	-1353
▁wo	-1354
ably	-1355
ader	-1356
ages	-1357
ants	-1358
aste	-1359
atch	-1360
ault	-1361
bbed	-1362
body	-1363
cles	-1364
ense	-1365
ideo	-1366
iest	-1367
ined	-1368
ires	-1369
itch	-1370
nter	-1371
oint	-1372
olog	-1373
oney	-1374
rown	-1375
sent	-1376
used	-1377
▁Man	-1378
▁Our	-1379
▁Who	-1380
▁YOU	-1381
▁add	-1382
▁ang	-1383
▁ass	-1384
▁big	-1385
▁bod	-1386
▁box	-1387
▁cor	-1388
▁fig	-1389
▁fur	-1390
▁gas	-1391
▁gat	-1392
▁gif	-1393
▁imm	-1394
▁jum	-1395
▁lay	-1396
▁lot	-1397
▁mil	-1398
▁mur	-1399
▁pac	-1400
▁par	-1401
▁ran	-1402
▁sum	-1403
ached	-1404
acked	-1405
alfun	-1406
ening	-1407
idden	-1408
iliar	-1409
ility	-1410
llect	-1411
ments	-1412
reeze	-1413
stand	-1414
usion	-1415
▁Even	-1416
▁also	-1417
▁born	-1418
▁both	-1419
▁call	-1420
▁fail	-1421
▁fell	-1422
▁felt	-1423
▁fool	-1424
▁hang	-1425
▁hate	-1426
▁hero	-1427
▁lone	-1428
▁mask	-1429
▁miss	-1430
▁mist	-1431
▁note	-1432
▁pick	-1433
▁post	-1434
▁reas	-1435
▁rock	-1436
▁sand	-1437
▁save	-1438
▁supp	-1439
▁town	-1440
▁vict	-1441
▁wake	-1442
▁weak	-1443
▁wish	-1444
aining	-1445
athers	-1446
itting	-1447
ushing	-1448
▁After	-1449
▁Their	-1450
▁alter	-1451
▁beach	-1452
▁chose	-1453
▁close	-1454
▁comes	-1455
▁earth	-1456
▁grass	-1457
▁hands	-1458
▁laugh	-1459
▁lived	-1460
▁minut	-1461
▁phone	-1462
▁press	-1463
▁quick	-1464
▁quite	-1465
▁sound	-1466
▁stars	-1467
▁taste	-1468
▁terri	-1469
▁video	-1470
▁worth	-1471
▁wrong	-1472
Prompts	-1473
aughter	-1474
ctioned	-1475
▁become	-1476
▁betray	-1477
▁breeze	-1478
▁coming	-1479
▁disapp	-1480
▁except	-1481
▁family	-1482
▁gently	-1483
▁ground	-1484
▁having	-1485
▁humans	-1486
▁killer	-1487
▁malfun	-1488
▁memory	-1489
▁object	-1490
▁others	-1491
▁pocket	-1492
▁return	-1493
▁spread	-1494
▁sudden	-1495
▁thirst	-1496
▁walked	-1497
▁Writing	-1498
▁between	-1499
▁exactly	-1500
▁finally	-1501
▁morning	-1502
▁perfect	-1503
▁playing	-1504
▁Everyone	-1505
▁gathered	-1506
▁guardian	-1507
▁humanity	-1508
▁possible	-1509
▁attention	-1510
▁character	-1511
▁understand	-1512
▁malfunctioned	-1513
!!	-1514
,'	-1515
?'	-1516
LL	-1517
Wa	-1518
bs	-1519
ug	-1520
xi	-1521
aim	-1522
ait	-1523
ane	-1524
apt	-1525
arm	-1526
edi	-1527
emy	-1528
eps	-1529
erg	-1530
gth	-1531
gul	-1532
het	-1533
icy	-1534
ids	-1535
ils	-1536
irt	-1537
itc	-1538
ley	-1539
oms	-1540
rol	-1541
roy	-1542
uct	-1543
unk	-1544
ush	-1545
uth	-1546
vit	-1547
vol	-1548
▁10	-1549
▁25	-1550
▁BC	-1551
▁Do	-1552
▁Fl	-1553
▁Go	-1554
▁Gu	-1555
▁Pl	-1556
▁Re	-1557
▁er	-1558
▁ra	-1559
,000	-1560
ades	-1561
aped	-1562
aper	-1563
ased	-1564
ater	-1565
aven	-1566
bing	-1567
cent	-1568
cher	-1569
cies	-1570
empt	-1571
head	-1572
iced	-1573
idea	-1574
ient	-1575
iled	-1576
irty	-1577
line	-1578
nded	-1579
oles	-1580
ords	-1581
ourn	-1582
reme	-1583
ries	-1584
teen	-1585
ured	-1586
vice	-1587
yond	-1588
▁Con	-1589
▁One	-1590
▁ask	-1591
▁cap	-1592
▁dem	-1593
▁det	-1594
▁ear	-1595
▁fan	-1596
▁fre	-1597
▁hus	-1598
▁ine	-1599
▁lim	-1600
▁mir	-1601
▁ple	-1602
▁pop	-1603
▁res	-1604
▁tit	-1605
▁top	-1606
aning	-1607
anley	-1608
arent	-1609
ember	-1610
erous	-1611
iddle	-1612
ingly	-1613
ocked	-1614
oming	-1615
otten	-1616
prise	-1617
ready	-1618
▁Alex	-1619
▁Dele	-1620
▁From	-1621
▁Just	-1622
▁Like	-1623
▁Look	-1624
▁Mine	-1625
▁Only	-1626
▁bull	-1627
▁burn	-1628
▁cell	-1629
▁cent	-1630
▁clim	-1631
▁conf	-1632
▁crum	-1633
▁dire	-1634
▁feet	-1635
▁food	-1636
▁foot	-1637
▁held	-1638
▁hell	-1639
▁help	-1640
▁hung	-1641
▁idea	-1642
▁kitc	-1643
▁luck	-1644
▁near	-1645
▁neck	-1646
▁next	-1647
▁publ	-1648
▁rece	-1649
▁rich	-1650
▁rust	-1651
▁scre	-1652
▁shel	-1653
▁ship	-1654
▁shit	-1655
▁shot	-1656
▁show	-1657
▁soup	-1658
▁star	-1659
▁stri	-1660
▁subm	-1661
▁such	-1662
▁suff	-1663
▁test	-1664
▁thro	-1665
▁toes	-1666
▁went	-1667
▁wild	-1668
aching	-1669
elling	-1670
gether	-1671
ternet	-1672
▁Vader	-1673
▁alone	-1674
▁along	-1675
▁belie	-1676
▁books	-1677
▁built	-1678
▁chair	-1679
▁chill	-1680
▁claim	-1681
▁clear	-1682
▁compl	-1683
▁crack	-1684
▁cross	-1685
▁depth	-1686
▁displ	-1687
▁faces	-1688
▁faded	-1689
▁favor	-1690
▁feels	-1691
▁floor	-1692
▁given	-1693
▁holes	-1694
▁hours	-1695
▁incre	-1696
▁known	-1697
▁minds	-1698
▁money	-1699
▁moved	-1700
▁moves	-1701
▁needs	-1702
▁peace	-1703
▁reach	-1704
▁smell	-1705
▁smile	-1706
▁smoke	-1707
▁spark	-1708
▁stare	-1709
▁super	-1710
▁times	-1711
▁tired	-1712
▁trans	-1713
▁truly	-1714
▁twist	-1715
▁voice	-1716
▁waves	-1717
ilities	-1718
▁Before	-1719
▁Please	-1720
▁begins	-1721
▁bottle	-1722
▁bright	-1723
▁create	-1724
▁forest	-1725
▁heaven	-1726
▁hollow	-1727
▁middle	-1728
▁myster	-1729
▁number	-1730
▁passed	-1731
▁proble	-1732
▁rather	-1733
▁reason	-1734
▁remind	-1735
▁secret	-1736
▁seemed	-1737
▁strong	-1738
▁though	-1739
▁twenty	-1740
▁wizard	-1741
▁worked	-1742
▁Stanley	-1743
▁Through	-1744
▁already	-1745
▁capital	-1746
▁changed	-1747
▁counter	-1748
▁deliver	-1749
▁destroy	-1750
▁embrace	-1751
▁endless	-1752
▁forward	-1753
▁goodbye	-1754
▁kitchen	-1755
▁knowing	-1756
▁million	-1757
▁minutes	-1758
▁moments	-1759
▁outside	-1760
▁process	-1761
▁prompts	-1762
▁setting	-1763
▁shadows	-1764
▁someone	-1765
▁species	-1766
▁walking	-1767
▁watched	-1768
▁Deleting	-1769
▁advanced	-1770
▁continue	-1771
▁creature	-1772
▁distance	-1773
▁everyone	-1774
▁familiar	-1775
▁flawless	-1776
▁memories	-1777
▁together	-1778
▁universe	-1779
▁eliminate	-1780
▁sentences	-1781
▁completely	-1782
▁discovered	-1783
63	-1784
DU	-1785
ER	-1786
IV	-1787
NT	-1788
OP	-1789
OT	-1790
RA	-1791
RO	-1792
cc	-1793
fl	-1794
go	-1795
hh	-1796
kn	-1797
ng	-1798
ns	-1799
sh	-1800
▁!	-1801
▁9	-1802
018	-1803
abl	-1804
ald	-1805
arr	-1806
ato	-1807
aze	-1808
chn	-1809
cle	-1810
cur	-1811
eat	-1812
ems	-1813
ere	-1814
eth	-1815
fer	-1816
ffe	-1817
ina	-1818
iol	-1819
irm	-1820
ize	-1821
lem	-1822
mag	-1823
mos	-1824
oto	-1825
ral	-1826
ric	-1827
rid	-1828
rie	-1829
ril	-1830
the	-1831
tom	-1832
ton	-1833
ube	-1834
ude	-1835
une	-1836
ute	-1837
▁Aw	-1838
▁Br	-1839
▁Fe	-1840
▁av	-1841
▁ed	-1842
▁es	-1843
▁fr	-1844
▁id	-1845
▁sn	-1846
What	-1847
aces	-1848
arge	-1849
cial	-1850
come	-1851
erry	-1852
etry	-1853
ides	-1854
ighb	-1855
ises	-1856
ives	-1857
izon	-1858
king	-1859
lect	-1860
lled	-1861
more	-1862
oned	-1863
oose	-1864
oper	-1865
ored	-1866
ossi	-1867
otic	-1868
oved	-1869
ried	-1870
room	-1871
roud	-1872
ully	-1873
work	-1874
▁Bec	-1875
▁Eli	-1876
▁Get	-1877
▁Pre	-1878
▁Ste	-1879
▁Sur	-1880
▁Two	-1881
▁adm	-1882
▁ans	-1883
▁bad	-1884
▁bir	-1885
▁bra	-1886
▁cat	-1887
▁cir	-1888
▁dec	-1889
▁den	-1890
▁eat	-1891
▁eye	-1892
▁fly	-1893
▁fru	-1894
▁god	-1895
▁hit	-1896
▁hom	-1897
▁ign	-1898
▁ill	-1899
▁ind	-1900
▁inj	-1901
▁joy	-1902
▁key	-1903
▁led	-1904
▁leg	-1905
▁lif	-1906
▁mag	-1907
▁med	-1908
▁mer	-1909
▁nor	-1910
▁occ	-1911
▁pol	-1912
▁sad	-1913
▁sal	-1914
▁six	-1915
▁sol	-1916
▁sym	-1917
▁ter	-1918
▁van	-1919
▁wip	-1920
▁won	-1921
allen	-1922
alley	-1923
ander	-1924
ately	-1925
ature	-1926
board	-1927
compl	-1928
dered	-1929
ement	-1930
eping	-1931
erest	-1932
ested	-1933
field	-1934
fting	-1935
iding	-1936
illed	-1937
ition	-1938
iving	-1939
known	-1940
light	-1941
meric	-1942
ortun	-1943
tered	-1944
uries	-1945
ution	-1946
▁CELL	-1947
▁Gren	-1948
▁Imag	-1949
▁Long	-1950
▁Star	-1951
▁Time	-1952
▁Well	-1953
▁Will	-1954
▁amaz	-1955
▁arms	-1956
▁ball	-1957
▁bare	-1958
▁bill	-1959
▁boat	-1960
▁cand	-1961
▁cert	-1962
▁city	-1963
▁clos	-1964
▁cops	-1965
▁dang	-1966
▁defe	-1967
▁else	-1968
▁evil	-1969
▁fade	-1970
▁fast	-1971
▁fuck	-1972
▁gave	-1973
▁grey	-1974
▁grow	-1975
▁half	-1976
▁hill	-1977
▁inan	-1978
▁insp	-1979
▁kids	-1980
▁land	-1981
▁late	-1982
▁laun	-1983
▁main	-1984
▁moss	-1985
▁mush	-1986
▁nice	-1987
▁nine	-1988
▁onto	-1989
▁pier	-1990
▁poem	-1991
▁prep	-1992
▁pret	-1993
▁prev	-1994
▁priv	-1995
▁pure	-1996
▁resp	-1997
▁rose	-1998
▁sugg	-1999
▁sure	-2000
▁thee	-2001
▁tiny	-2002
▁trip	-2003
▁vers	-2004
▁viol	-2005
▁wait	-2006
▁whim	-2007
▁wood	-2008
arents	-2009
atters	-2010
erries	-2011
ground	-2012
ically	-2013
icious	-2014
iction	-2015
ildren	-2016
ilever	-2017
ointed	-2018
remely	-2019
ressed	-2020
sident	-2021
terday	-2022
though	-2023
uation	-2024
ugging	-2025
▁Great	-2026
▁James	-2027
▁Never	-2028
▁Still	-2029
▁Today	-2030
▁Where	-2031
▁aband	-2032
▁appre	-2033
▁asked	-2034
▁bones	-2035
▁clean	-2036
▁color	-2037
▁drive	-2038
▁drone	-2039
▁elect	-2040
▁ended	-2041
▁enemy	-2042
▁escap	-2043
▁focus	-2044
▁giant	-2045
▁gives	-2046
▁grand	-2047
▁image	-2048
▁impro	-2049
▁knows	-2050
▁lives	-2051
▁lucky	-2052
▁lying	-2053
▁mount	-2054
▁notes	-2055
▁novel	-2056
▁older	-2057
▁order	-2058
▁paper	-2059
▁regul	-2060
▁rhyme	-2061
▁river	-2062
▁scene	-2063
▁sense	-2064
▁sight	-2065
▁skill	-2066
▁stone	-2067
▁stret	-2068
▁stuff	-2069
▁sweet	-2070
▁techn	-2071
▁teeth	-2072
▁throw	-2073
▁touch	-2074
▁trick	-2075
▁tried	-2076
▁truth	-2077
▁whose	-2078
▁winds	-2079
Writing	-2080
cessary	-2081
ndering	-2082
rounded	-2083
vitable	-2084
▁Americ	-2085
▁Reddit	-2086
▁United	-2087
▁animal	-2088
▁beyond	-2089
▁bodies	-2090
▁bottom	-2091
▁compan	-2092
▁depths	-2093
▁drawer	-2094
▁dreams	-2095
▁during	-2096
▁finger	-2097
▁hidden	-2098
▁itself	-2099
▁joined	-2100
▁living	-2101
▁locked	-2102
▁making	-2103
▁market	-2104
▁neighb	-2105
▁notice	-2106
▁prompt	-2107
▁proper	-2108
▁pulled	-2109
▁purple	-2110
▁remain	-2111
▁scared	-2112
▁school	-2113
▁shared	-2114
▁street	-2115
▁summer	-2116
▁switch	-2117
▁valley	-2118
▁Because	-2119
▁Grenald	-2120
▁Looking	-2121
▁animals	-2122
▁anymore	-2123
▁billion	-2124
▁certain	-2125
▁collect	-2126
▁control	-2127
▁display	-2128
▁driving	-2129
▁explain	-2130
▁flowers	-2131
▁getting	-2132
▁horizon	-2133
▁impossi	-2134
▁learned	-2135
▁muscles	-2136
▁noticed	-2137
▁numbers	-2138
▁parents	-2139
▁potions	-2140
▁present	-2141
▁problem	-2142
▁quickly	-2143
▁receive	-2144
▁strange	-2145
▁streets	-2146
▁turning	-2147
▁unknown	-2148
▁victory	-2149
▁watches	-2150
▁written	-2151
ationship	-2152
▁Unilever	-2153
▁anything	-2154
▁anywhere	-2155
▁business	-2156
▁describe	-2157
▁eternity	-2158
▁favorite	-2159
▁millions	-2160
▁powerful	-2161
▁standing	-2162
▁extremely	-2163
▁inanimate	-2164
▁survivors	-2165
▁Everything	-2166
▁eventually	-2167
▁everywhere	-2168
▁relationship	-2169
WritingPrompts	-2170
▁possibilities	-2171
-'	-2172
22	-2173
23	-2174
41	-2175
45	-2176
65	-2177
98	-2178
An	-2179
Cw	-2180
EM	-2181
EV	-2182
IS	-2183
LK	-2184
MB	-2185
Ms	-2186
OS	-2187
Oc	-2188
RL	-2189
TC	-2190
VU	-2191
ZJ	-2192
bg	-2193
ex	-2194
fp	-2195
gT	-2196
gn	-2197
gr	-2198
ho	-2199
lo	-2200
rs	-2201
tu	-2202
uA	-2203
uf	-2204
wl	-2205
xE	-2206
xe	-2207
yg	-2208
yn	-2209
yp	-2210
zZ	-2211
zk	-2212
zy	-2213
zz	-2214
▁Q	-2215
▁Z	-2216
The	-2217
aby	-2218
acy	-2219
ape	-2220
arl	-2221
arp	-2222
att	-2223
bel	-2224
bey	-2225
bly	-2226
cho	-2227
cks	-2228
coh	-2229
der	-2230
dom	-2231
emp	-2232
eor	-2233
erv	-2234
ggs	-2235
gin	-2236
gue	-2237
how	-2238
ini	-2239
iod	-2240
ios	-2241
itl	-2242
joy	-2243
let	-2244
lin	-2245
low	-2246
omb	-2247
ont	-2248
ony	-2249
oop	-2250
orp	-2251
osp	-2252
oud	-2253
ply	-2254
pop	-2255
rap	-2256
rey	-2257
sed	-2258
sem	-2259
set	-2260
sum	-2261
thm	-2262
ulf	-2263
umn	-2264
unt	-2265
uts	-2266
vat	-2267
vey	-2268
war	-2269
▁12	-2270
▁14	-2271
▁Ar	-2272
▁Er	-2273
▁Ke	-2274
▁La	-2275
▁Sc	-2276
▁Se	-2277
▁Su	-2278
▁Sw	-2279
▁TV	-2280
▁Up	-2281
▁bi	-2282
▁oh	-2283
▁ur	-2284
▁ve	-2285
0182	-2286
aced	-2287
aged	-2288
ager	-2289
ails	-2290
aken	-2291
amed	-2292
anks	-2293
arch	-2294
arts	-2295
athy	-2296
atur	-2297
away	-2298
beat	-2299
bled	-2300
born	-2301
chet	-2302
cogn	-2303
cted	-2304
cuss	-2305
duct	-2306
eady	-2307
ease	-2308
ened	-2309
face	-2310
ffee	-2311
ging	-2312
hern	-2313
hile	-2314
iary	-2315
icks	-2316
iers	-2317
ilar	-2318
iles	-2319
ints	-2320
ised	-2321
itad	-2322
ixes	-2323
land	-2324
lcom	-2325
lear	-2326
like	-2327
ogue	-2328
omed	-2329
omic	-2330
orts	-2331
osed	-2332
owed	-2333
ples	-2334
quer	-2335
rage	-2336
ring	-2337
ront	-2338
ruct	-2339
stal	-2340
tery	-2341
tled	-2342
tory	-2343
tuce	-2344
ucif	-2345
umin	-2346
unts	-2347
urst	-2348
uses	-2349
uter	-2350
vern	-2351
vest	-2352
wers	-2353
▁***	-2354
▁250	-2355
▁Air	-2356
▁Axe	-2357
▁Bro	-2358
▁Dan	-2359
▁Fin	-2360
▁Gem	-2361
▁God	-2362
▁Her	-2363
▁Hor	-2364
▁Hum	-2365
▁Lit	-2366
▁New	-2367
▁Put	-2368
▁Res	-2369
▁Sir	-2370
▁abs	-2371
▁ads	-2372
▁ann	-2373
▁ant	-2374
▁ast	-2375
▁bit	-2376
▁ble	-2377
▁dig	-2378
▁due	-2379
▁emb	-2380
▁eng	-2381
▁est	-2382
▁etc	-2383
▁fif	-2384
▁fit	-2385
▁gen	-2386
▁hon	-2387
▁ice	-2388
▁icy	-2389
▁ins	-2390
▁len	-2391
▁low	-2392
▁mad	-2393
▁mol	-2394
▁nar	-2395
▁oce	-2396
▁odd	-2397
▁pat	-2398
▁pay	-2399
▁pen	-2400
▁pet	-2401
▁pun	-2402
▁rag	-2403
▁rec	-2404
▁rip	-2405
▁sav	-2406
▁sev	-2407
▁sho	-2408
▁sit	-2409
▁unf	-2410
▁unm	-2411
▁wit	-2412
▁wom	-2413
▁yes	-2414
acing	-2415
aming	-2416
anket	-2417
anned	-2418
anner	-2419
anted	-2420
asion	-2421
aving	-2422
bably	-2423
bered	-2424
bling	-2425
chett	-2426
cking	-2427
cohol	-2428
ctors	-2429
ddess	-2430
ected	-2431
eless	-2432
eling	-2433
ental	-2434
eorge	-2435
etime	-2436
flies	-2437
fying	-2438
hello	-2439
ially	-2440
icate	-2441
iches	-2442
ifist	-2443
ishes	-2444
isper	-2445
itler	-2446
kward	-2447
ledge	-2448
onger	-2449
orrow	-2450
osite	-2451
ously	-2452
pathy	-2453
pping	-2454
ption	-2455
rived	-2456
rying	-2457
sider	-2458
space	-2459
ssess	-2460
stant	-2461
sters	-2462
uckle	-2463
ument	-2464
vatar	-2465
veral	-2466
world	-2467
▁Blue	-2468
▁Lexi	-2469
▁Life	-2470
▁Mark	-2471
▁Most	-2472
▁Once	-2473
▁Prat	-2474
▁Slow	-2475
▁Some	-2476
▁Turn	-2477
▁West	-2478
▁bang	-2479
▁beat	-2480
▁bike	-2481
▁calm	-2482
▁capt	-2483
▁chem	-2484
▁clay	-2485
▁core	-2486
▁cour	-2487
▁cult	-2488
▁date	-2489
▁dawn	-2490
▁deal	-2491
▁desk	-2492
▁desp	-2493
▁easy	-2494
▁echo	-2495
▁ends	-2496
▁fake	-2497
▁fate	-2498
▁feed	-2499
▁firm	-2500
▁fish	-2501
▁flat	-2502
▁frie	-2503
▁gift	-2504
▁gold	-2505
▁gore	-2506
▁grab	-2507
▁grin	-2508
▁hair	-2509
▁hope	-2510
▁hurt	-2511
▁imag	-2512
▁kind	-2513
▁kiss	-2514
▁laid	-2515
▁lave	-2516
▁lawn	-2517
▁line	-2518
▁lips	-2519
▁loud	-2520
▁male	-2521
▁mass	-2522
▁meat	-2523
▁mere	-2524
▁mine	-2525
▁none	-2526
▁pack	-2527
▁park	-2528
▁pict	-2529
▁pods	-2530
▁pool	-2531
▁poor	-2532
▁pred	-2533
▁prot	-2534
▁prov	-2535
▁rang	-2536
▁ring	-2537
▁rise	-2538
▁road	-2539
▁ruin	-2540
▁safe	-2541
▁seas	-2542
▁seat	-2543
▁sens	-2544
▁sick	-2545
▁sign	-2546
▁slam	-2547
▁soft	-2548
▁spot	-2549
▁stag	-2550
▁stra	-2551
▁sway	-2552
▁tall	-2553
▁teen	-2554
▁tell	-2555
▁text	-2556
▁tick	-2557
▁tune	-2558
▁vill	-2559
▁void	-2560
▁wall	-2561
▁wave	-2562
▁ways	-2563
▁woke	-2564
▁wore	-2565
▁yell	-2566
akable	-2567
aptain	-2568
atever	-2569
elcome	-2570
inning	-2571
iosity	-2572
ispers	-2573
orious	-2574
riving	-2575
siders	-2576
tended	-2577
uclear	-2578
vering	-2579
▁Being	-2580
▁Black	-2581
▁Death	-2582
▁Error	-2583
▁Mario	-2584
▁Terry	-2585
▁Until	-2586
▁White	-2587
▁Words	-2588
▁accid	-2589
▁alley	-2590
▁anger	-2591
▁apart	-2592
▁awake	-2593
▁aware	-2594
▁bands	-2595
▁beast	-2596
▁begin	-2597
▁below	-2598
▁blade	-2599
▁block	-2600
▁brave	-2601
▁break	-2602
▁brief	-2603
▁burst	-2604
▁cable	-2605
▁carry	-2606
▁check	-2607
▁cheer	-2608
▁chest	-2609
▁crash	-2610
▁dance	-2611
▁dread	-2612
▁early	-2613
▁emerg	-2614
▁enjoy	-2615
▁entry	-2616
▁fault	-2617
▁fears	-2618
▁feast	-2619
▁field	-2620
▁flash	-2621
▁flaws	-2622
▁forms	-2623
▁goats	-2624
▁inter	-2625
▁limit	-2626
▁metal	-2627
▁mourn	-2628
▁named	-2629
▁noise	-2630
▁opens	-2631
▁photo	-2632
▁punch	-2633
▁react	-2634
▁revol	-2635
▁scrat	-2636
▁seven	-2637
▁shame	-2638
▁shirt	-2639
▁shoot	-2640
▁shore	-2641
▁speak	-2642
▁stall	-2643
▁stand	-2644
▁steel	-2645
▁steps	-2646
▁stops	-2647
▁stren	-2648
▁table	-2649
▁takes	-2650
▁tight	-2651
▁title	-2652
▁walls	-2653
▁watch	-2654
▁weird	-2655
▁wings	-2656
▁wires	-2657
▁works	-2658
▁wrote	-2659
▁young	-2660
fathers	-2661
raction	-2662
ressing	-2663
ression	-2664
sidered	-2665
▁Avatar	-2666
▁Gemini	-2667
▁George	-2668
▁Hitler	-2669
▁Period	-2670
▁Rotten	-2671
▁Should	-2672
▁States	-2673
▁Thanks	-2674
▁addict	-2675
▁attack	-2676
▁barely	-2677
▁beauty	-2678
▁calcul	-2679
▁circle	-2680
▁cities	-2681
▁coffee	-2682
▁consum	-2683
▁crunch	-2684
▁desert	-2685
▁design	-2686
▁detail	-2687
▁device	-2688
▁easier	-2689
▁ending	-2690
▁entire	-2691
▁famous	-2692
▁fellow	-2693
▁figure	-2694
▁filled	-2695
▁flowed	-2696
▁glance	-2697
▁haunts	-2698
▁horror	-2699
▁immedi	-2700
▁killed	-2701
▁length	-2702
▁letter	-2703
▁lights	-2704
▁lonely	-2705
▁marvel	-2706
▁mirror	-2707
▁needed	-2708
▁office	-2709
▁online	-2710
▁poetry	-2711
▁pretty	-2712
▁relief	-2713
▁report	-2714
▁rhythm	-2715
▁scient	-2716
▁screen	-2717
▁shield	-2718
▁shines	-2719
▁simply	-2720
▁smiled	-2721
▁solved	-2722
▁stands	-2723
▁steady	-2724
▁stormy	-2725
▁strugg	-2726
▁suffer	-2727
▁throat	-2728
▁thrown	-2729
▁trying	-2730
▁voices	-2731
▁welcom	-2732
▁wooden	-2733
ablished	-2734
eresting	-2735
vernment	-2736
▁America	-2737
▁Another	-2738
▁Finally	-2739
▁Rations	-2740
▁Sitting	-2741
▁ability	-2742
▁accompl	-2743
▁alcohol	-2744
▁appreci	-2745
▁attempt	-2746
▁because	-2747
▁blanket	-2748
▁bullets	-2749
▁burning	-2750
▁challen	-2751
▁changes	-2752
▁cliches	-2753
▁command	-2754
▁complex	-2755
▁contain	-2756
▁continu	-2757
▁country	-2758
▁culture	-2759
▁darkest	-2760
▁disease	-2761
▁dropped	-2762
▁eternal	-2763
▁falling	-2764
▁fiction	-2765
▁gaining	-2766
▁glowing	-2767
▁goddess	-2768
▁hanging	-2769
▁heavens	-2770
▁herself	-2771
▁history	-2772
▁instant	-2773
▁keeping	-2774
▁letting	-2775
▁lettuce	-2776
▁mention	-2777
▁message	-2778
▁opening	-2779
▁painted	-2780
▁perhaps	-2781
▁product	-2782
▁reached	-2783
▁regular	-2784
▁removed	-2785
▁rushing	-2786
▁secrets	-2787
▁several	-2788
▁shelter	-2789
▁silence	-2790
▁slipped	-2791
▁smelled	-2792
▁soldier	-2793
▁somehow	-2794
▁sparked	-2795
▁special	-2796
▁suggest	-2797
▁tearing	-2798
▁tugging	-2799
▁twisted	-2800
▁violent	-2801
▁whimper	-2802
▁whisper	-2803
▁windows	-2804
▁Children	-2805
▁Standing	-2806
▁Whenever	-2807
▁becoming	-2808
▁believed	-2809
▁betrayal	-2810
▁building	-2811
▁computer	-2812
▁consider	-2813
▁constant	-2814
▁counting	-2815
▁emotions	-2816
▁feelings	-2817
▁finished	-2818
▁floating	-2819
▁function	-2820
▁happiest	-2821
▁hundreds	-2822
▁internet	-2823
▁laughing	-2824
▁lavender	-2825
▁lifetime	-2826
▁location	-2827
▁missiles	-2828
▁murdered	-2829
▁occasion	-2830
▁opposite	-2831
▁pacifist	-2832
▁pictures	-2833
▁possibly	-2834
▁probably	-2835
▁realized	-2836
▁remember	-2837
▁returned	-2838
▁sleeping	-2839
▁soldiers	-2840
▁straight	-2841
▁suddenly	-2842
▁surprise	-2843
▁terrible	-2844
▁thoughts	-2845
▁whispers	-2846
▁Alexander	-2847
▁Pratchett	-2848
▁Something	-2849
▁Yesterday	-2850
▁abandoned	-2851
▁breathing	-2852
▁curiosity	-2853
▁disappear	-2854
▁displayed	-2855
▁emotional	-2856
▁necessary	-2857
▁outsiders	-2858
▁perfectly	-2859
▁published	-2860
▁questions	-2861
▁scratches	-2862
▁somewhere	-2863
▁spreading	-2864
▁technolog	-2865
▁thousands	-2866
▁warmonger	-2867
▁approached	-2868
▁capitalize	-2869
▁characters	-2870
▁considered	-2871
▁inevitable	-2872
▁mysterious	-2873
▁surrounded	-2874
▁terrifying	-2875
▁Imagination	-2876
▁battlefield	-2877
▁interesting	-2878
!'	-2879
',	-2880
25	-2881
31	-2882
39	-2883
57	-2884
69	-2885
74	-2886
87	-2887
89	-2888
AD	-2889
AM	-2890
AY	-2891
Ad	-2892
Ae	-2893
Af	-2894
Ag	-2895
Ap	-2896
BQ	-2897
Bi	-2898
Bl	-2899
0-	-2900
05	-2901
08	-2902
24	-2903
33	-2904
67	-2905
Ao	-2906
Bu	-2907
Ch	-2908
Cy	-2909
DS	-2910
Dn	-2911
Ds	-2912
ED	-2913
Fj	-2914
Fy	-2915
GD	-2916
GG	-2917
GU	-2918
Gi	-2919
HR	-2920
Hb	-2921
II	-2922
IJ	-2923
IP	-2924
Ig	-2925
Is	-2926
JD	-2927
KC	-2928
LM	-2929
LZ	-2930
MR	-2931
OD	-2932
OG	-2933
OK	-2934
OV	-2935
PC	-2936
QV	-2937
QX	-2938
Rm	-2939
SC	-2940
SH	-2941
SJ	-2942
SO	-2943
TF	-2944
Tc	-2945
Th	-2946
UN	-2947
US	-2948
Up	-2949
Vb	-2950
Vn	-2951
WH	-2952
WP	-2953
WS	-2954
Wc	-2955
Wv	-2956
XI	-2957
Xr	-2958
Xv	-2959
Xx	-2960
YY	-2961
ZC	-2962
ZL	-2963
ZP	-2964
Zy	-2965
aU	-2966
aq	-2967
bc	-2968
bi	-2969
bt	-2970
cE	-2971
cQ	-2972
cY	-2973
cz	-2974
dD	-2975
dU	-2976
do	-2977
fF	-2978
fd	-2979
fj	-2980
fo	-2981
fs	-2982
fw	-2983
gb	-2984
hT	-2985
ha	-2986
hi	-2987
hp	-2988
iP	-2989
iV	-2990
ib	-2991
ja	-2992
kl	-2993
mC	-2994
mr	-2995
my	-2996
ny	-2997
pe	-2998
qI	-2999
qV	-3000
qW	-3001
qo	-3002
qs	-3003
sk	-3004
sy	-3005
tr	-3006
up	-3007
uu	-3008
yi	-3009
yq	-3010
yr	-3011
zK	-3012
zP	-3013
▁0	-3014
▁7	-3015
▁;	-3016
!!!	-3017
003	-3018
015	-3019
And	-3020
ChI	-3021
For	-3022
RAL	-3023
RAN	-3024
ROM	-3025
TOS	-3026
add	-3027
adf	-3028
aes	-3029
aic	-3030
ale	-3031
alo	-3032
alt	-3033
ams	-3034
aos	-3035
apo	-3036
arb	-3037
arg	-3038
aud	-3039
avy	-3040
bol	-3041
cer	-3042
cut	-3043
ded	-3044
een	-3045
ery	-3046
fic	-3047
fra	-3048
ger	-3049
gic	-3050
gun	-3051
hic	-3052
iel	-3053
ift	-3054
igo	-3055
ips	-3056
isf	-3057
ism	-3058
lit	-3059
lls	-3060
man	-3061
mon	-3062
nce	-3063
ned	-3064
off	-3065
ogw	-3066
opt	-3067
oth	-3068
pan	-3069
pse	-3070
ret	-3071
rew	-3072
rib	-3073
sia	-3074
spe	-3075
tif	-3076
top	-3077
ume	-3078
ump	-3079
ury	-3080
vin	-3081
xed	-3082
yon	-3083
yss	-3084
zed	-3085
▁--	-3086
▁1-	-3087
▁13	-3088
▁16	-3089
▁18	-3090
▁19	-3091
▁35	-3092
▁AN	-3093
▁AP	-3094
▁Am	-3095
▁Ap	-3096
▁Bu	-3097
▁CO	-3098
▁Cl	-3099
ERE	-3100
eks	-3101
▁50	-3102
▁Da	-3103
▁EU	-3104
▁Em	-3105
▁Gl	-3106
▁Gr	-3107
▁Is	-3108
▁Me	-3109
▁Mr	-3110
▁Ne	-3111
▁PI	-3112
▁Pe	-3113
▁Po	-3114
▁RE	-3115
▁Sn	-3116
▁Sp	-3117
▁TO	-3118
▁Tr	-3119
▁Um	-3120
▁Us	-3121
▁Vs	-3122
▁WH	-3123
▁ce	-3124
▁cu	-3125
▁gh	-3126
▁ju	-3127
▁od	-3128
▁ut	-3129
-...	-3130
Dwar	-3131
Hell	-3132
Make	-3133
acle	-3134
agra	-3135
aint	-3136
aked	-3137
aled	-3138
amer	-3139
arms	-3140
ases	-3141
ator	-3142
azon	-3143
back	-3144
band	-3145
berg	-3146
bles	-3147
bliv	-3148
chan	-3149
cing	-3150
crew	-3151
ctor	-3152
ddit	-3153
down	-3154
elve	-3155
emed	-3156
enge	-3157
engh	-3158
eous	-3159
erie	-3160
esus	-3161
fall	-3162
fire	-3163
fted	-3164
fuck	-3165
good	-3166
hers	-3167
hest	-3168
hold	-3169
icer	-3170
icip	-3171
ided	-3172
ider	-3173
iece	-3174
imil	-3175
inis	-3176
iods	-3177
irit	-3178
ison	-3179
ivid	-3180
kind	-3181
leet	-3182
lemn	-3183
leon	-3184
mare	-3185
meas	-3186
nant	-3187
nate	-3188
nect	-3189
ockw	-3190
ogic	-3191
oken	-3192
olun	-3193
opts	-3194
oral	-3195
orms	-3196
orus	-3197
osen	-3198
osts	-3199
DUM	-3200
ROL	-3201
UUUU	-3202
drop	-3203
laze	-3204
ooth	-3205
otes	-3206
ovel	-3207
pect	-3208
pose	-3209
pper	-3210
pses	-3211
quid	-3212
rast	-3213
redo	-3214
rils	-3215
roan	-3216
roup	-3217
rupt	-3218
sely	-3219
sity	-3220
smos	-3221
span	-3222
ssed	-3223
sued	-3224
sych	-3225
teer	-3226
terf	-3227
them	-3228
tons	-3229
ular	-3230
ulge	-3231
unge	-3232
ungs	-3233
urse	-3234
view	-3235
vity	-3236
wide	-3237
wind	-3238
wing	-3239
yote	-3240
▁200	-3241
▁300	-3242
▁Alf	-3243
▁Any	-3244
▁Are	-3245
▁Ask	-3246
▁Bat	-3247
▁Bet	-3248
▁Can	-3249
▁Cre	-3250
▁Cry	-3251
▁Dad	-3252
▁Del	-3253
▁Dis	-3254
▁Ess	-3255
▁Est	-3256
▁Hot	-3257
▁Its	-3258
▁May	-3259
▁NOT	-3260
▁Ode	-3261
▁Pot	-3262
▁Pro	-3263
▁Rem	-3264
▁Rep	-3265
▁Rus	-3266
▁Ser	-3267
▁Sol	-3268
▁Str	-3269
▁Sun	-3270
▁Vir	-3271
▁Was	-3272
▁Wor	-3273
▁Yet	-3274
▁aff	-3275
▁aim	-3276
▁arg	-3277
▁arm	-3278
▁ash	-3279
▁avo	-3280
▁bal	-3281
▁bes	-3282
▁bru	-3283
▁deb	-3284
▁div	-3285
▁dom	-3286
▁ego	-3287
▁ens	-3288
▁fad	-3289
▁fou	-3290
▁hat	-3291
▁hur	-3292
▁hyp	-3293
▁inc	-3294
▁jew	-3295
▁lat	-3296
▁lic	-3297
▁maj	-3298
▁mix	-3299
EMO	-3300
Cont	-3301
gram	-3302
holy	-3303
reya	-3304
▁487	-3305
▁mod	-3306
▁mos	-3307
▁mov	-3308
▁mud	-3309
▁non	-3310
▁oak	-3311
▁ori	-3312
▁pow	-3313
▁pul	-3314
▁pus	-3315
▁rad	-3316
▁rid	-3317
▁ris	-3318
▁rob	-3319
▁rum	-3320
▁sex	-3321
▁ski	-3322
▁sla	-3323
▁suc	-3324
▁sug	-3325
▁sus	-3326
▁tap	-3327
▁tea	-3328
▁thy	-3329
▁til	-3330
▁tom	-3331
▁unl	-3332
▁vel	-3333
▁vir	-3334
▁wre	-3335
.....	-3336
Force	-3337
NTROL	-3338
abies	-3339
acher	-3340
aches	-3341
acket	-3342
adfas	-3343
aesar	-3344
anked	-3345
anker	-3346
antas	-3347
apons	-3348
arded	-3349
arest	-3350
asant	-3351
asked	-3352
assed	-3353
astic	-3354
ative	-3355
attoo	-3356
bbing	-3357
belie	-3358
chers	-3359
chery	-3360
cided	-3361
cient	-3362
conds	-3363
count	-3364
eding	-3365
ented	-3366
erted	-3367
esome	-3368
ffled	-3369
ginal	-3370
haust	-3371
hetic	-3372
house	-3373
iance	-3374
icken	-3375
iders	-3376
ience	-3377
immer	-3378
inged	-3379
ining	-3380
inite	-3381
inked	-3382
inkle	-3383
inned	-3384
irens	-3385
ister	-3386
itary	-3387
ither	-3388
itted	-3389
ively	-3390
ivity	-3391
lines	-3392
nders	-3393
neath	-3394
ograp	-3395
olars	-3396
ondon	-3397
onent	-3398
opian	-3399
▁NPC	-3400
Dwarf	-3401
Hello	-3402
NTRAL	-3403
OPTOS	-3404
fraid	-3405
orate	-3406
ormal	-3407
ouses	-3408
oying	-3409
popul	-3410
redom	-3411
rench	-3412
right	-3413
ropri	-3414
screw	-3415
steps	-3416
ufact	-3417
ulate	-3418
umped	-3419
unken	-3420
urbed	-3421
urers	-3422
usage	-3423
using	-3424
utumn	-3425
venge	-3426
while	-3427
▁-003	-3428
▁2015	-3429
▁Beef	-3430
▁Brad	-3431
▁Cent	-3432
▁Chad	-3433
▁Cold	-3434
▁Cons	-3435
▁Dial	-3436
▁Dove	-3437
▁Each	-3438
▁Eggs	-3439
▁FROM	-3440
▁Fire	-3441
▁Gods	-3442
▁Gold	-3443
▁Have	-3444
▁Hogw	-3445
▁Lord	-3446
▁Love	-3447
▁MEMO	-3448
▁Make	-3449
▁Must	-3450
▁Napo	-3451
▁Narr	-3452
▁None	-3453
▁Over	-3454
▁Pain	-3455
▁Past	-3456
▁Prop	-3457
▁Rock	-3458
▁Sear	-3459
▁Soon	-3460
▁Sout	-3461
▁Stop	-3462
▁Wind	-3463
▁adul	-3464
▁anch	-3465
▁anti	-3466
▁band	-3467
▁bank	-3468
▁beef	-3469
▁busy	-3470
▁cars	-3471
▁case	-3472
▁comf	-3473
▁cond	-3474
▁cook	-3475
▁crad	-3476
▁crim	-3477
▁crow	-3478
▁curt	-3479
▁deck	-3480
▁decl	-3481
▁dial	-3482
▁diet	-3483
▁dirt	-3484
▁disc	-3485
▁dove	-3486
▁drag	-3487
▁draw	-3488
▁drum	-3489
▁dude	-3490
▁dull	-3491
▁ears	-3492
▁edge	-3493
▁empl	-3494
▁exit	-3495
▁feat	-3496
▁fine	-3497
▁fist	-3498
▁flex	-3499
▁forb	-3500
▁forg	-3501
▁glow	-3502
▁grad	-3503
▁gras	-3504
▁grew	-3505
▁guys	-3506
▁harm	-3507
▁heal	-3508
▁hide	-3509
▁hole	-3510
▁horn	-3511
▁hosp	-3512
▁huff	-3513
▁hunt	-3514
▁husk	-3515
▁inde	-3516
▁item	-3517
▁jump	-3518
▁knee	-3519
▁lack	-3520
▁liar	-3521
▁lies	-3522
▁lock	-3523
▁lull	-3524
▁mate	-3525
▁meal	-3526
▁mean	-3527
▁merc	-3528
▁mood	-3529
▁moon	-3530
▁mort	-3531
▁mugg	-3532
▁news	-3533
▁nose	-3534
▁nuts	-3535
▁obey	-3536
▁pale	-3537
▁path	-3538
▁peak	-3539
▁perf	-3540
▁pile	-3541
▁pink	-3542
▁pist	-3543
▁pity	-3544
▁poll	-3545
▁pres	-3546
▁prom	-3547
▁rage	-3548
▁rare	-3549
▁reck	-3550
▁reco	-3551
▁repl	-3552
▁roll	-3553
▁rope	-3554
▁sail	-3555
▁says	-3556
▁scar	-3557
▁seed	-3558
▁shop	-3559
▁sigh	-3560
▁snap	-3561
▁sole	-3562
▁song	-3563
▁sort	-3564
▁sour	-3565
▁spun	-3566
▁stay	-3567
▁step	-3568
▁suit	-3569
▁summ	-3570
▁swim	-3571
▁syst	-3572
▁tear	-3573
▁temp	-3574
▁term	-3575
▁thum	-3576
▁thus	-3577
▁tort	-3578
▁trop	-3579
▁trou	-3580
▁tube	-3581
▁unre	-3582
▁vain	-3583
▁vamp	-3584
▁wast	-3585
▁weep	-3586
▁wept	-3587
▁wife	-3588
▁wipe	-3589
▁worn	-3590
▁yard	-3591
▁zomb	-3592
RANDUM	-3593
agraph	-3594
aiting	-3595
angers	-3596
appled	-3597
around	-3598
asured	-3599
atural	-3600
cessor	-3601
ciples	-3602
coming	-3603
crease	-3604
create	-3605
curity	-3606
ddenly	-3607
enghis	-3608
ential	-3609
enture	-3610
erally	-3611
hereal	-3612
ifully	-3613
inisce	-3614
inking	-3615
itadel	-3616
letion	-3617
omeday	-3618
onents	-3619
ourney	-3620
racted	-3621
ration	-3622
reddit	-3623
resent	-3624
ronaut	-3625
routed	-3626
stance	-3627
ucifer	-3628
uments	-3629
undant	-3630
velled	-3631
▁April	-3632
▁Blood	-3633
▁Bread	-3634
▁Build	-3635
▁Clock	-3636
▁Count	-3637
▁Crown	-3638
▁Eliot	-3639
▁Flint	-3640
▁Freya	-3641
▁Glory	-3642
▁Grass	-3643
▁Hello	-3644
▁Jesus	-3645
▁Large	-3646
▁Logic	-3647
▁Night	-3648
▁Point	-3649
▁River	-3650
▁Start	-3651
▁Steve	-3652
▁Those	-3653
▁Three	-3654
▁Water	-3655
▁Which	-3656
▁Wurst	-3657
▁abuse	-3658
▁abyss	-3659
▁admit	-3660
▁angel	-3661
▁apopt	-3662
▁avail	-3663
▁awoke	-3664
▁balls	-3665
▁basic	-3666
▁basis	-3667
▁birds	-3668
▁birth	-3669
▁bites	-3670
▁bless	-3671
▁blown	-3672
▁booms	-3673
▁boots	-3674
▁bulge	-3675
▁calls	-3676
▁camer	-3677
▁candy	-3678
▁cared	-3679
▁cause	-3680
▁cells	-3681
▁champ	-3682
▁chaos	-3683
▁chore	-3684
▁coils	-3685
▁comma	-3686
▁cover	-3687
▁cried	-3688
▁crisp	-3689
▁crush	-3690
▁demon	-3691
▁dirty	-3692
▁disas	-3693
▁diver	-3694
▁drunk	-3695
▁eerie	-3696
▁eight	-3697
▁email	-3698
▁enter	-3699
▁exact	-3700
▁exper	-3701
▁falls	-3702
▁fifth	-3703
▁fills	-3704
▁finds	-3705
▁flame	-3706
▁fleet	-3707
▁force	-3708
▁forth	-3709
▁frame	-3710
▁freed	-3711
▁frequ	-3712
▁front	-3713
▁fruit	-3714
▁funny	-3715
▁gears	-3716
▁gener	-3717
▁girls	-3718
▁glory	-3719
▁grace	-3720
▁grave	-3721
▁groan	-3722
▁group	-3723
▁hangs	-3724
▁hated	-3725
▁heads	-3726
▁heavy	-3727
▁heels	-3728
▁hello	-3729
▁humid	-3730
▁ident	-3731
▁imper	-3732
▁infer	-3733
▁inher	-3734
▁invol	-3735
▁large	-3736
▁later	-3737
▁leads	-3738
▁looks	-3739
▁lover	-3740
▁lungs	-3741
▁magic	-3742
▁marry	-3743
▁match	-3744
▁maybe	-3745
▁meant	-3746
▁media	-3747
▁miles	-3748
▁milky	-3749
▁nurse	-3750
▁obliv	-3751
▁ocean	-3752
▁peers	-3753
▁plane	-3754
▁plate	-3755
▁plead	-3756
▁pract	-3757
▁prete	-3758
▁prize	-3759
▁proud	-3760
▁psych	-3761
▁rainb	-3762
▁rains	-3763
▁raise	-3764
▁refre	-3765
▁remem	-3766
▁rocks	-3767
▁roots	-3768
▁rough	-3769
▁ruins	-3770
▁salty	-3771
▁score	-3772
▁shape	-3773
▁sharp	-3774
▁shone	-3775
▁sides	-3776
▁skies	-3777
▁slope	-3778
▁speed	-3779
▁spend	-3780
▁spine	-3781
▁spray	-3782
▁squad	-3783
▁squee	-3784
▁stage	-3785
▁stalk	-3786
▁state	-3787
▁stuck	-3788
▁sweat	-3789
▁swirl	-3790
▁sword	-3791
▁taken	-3792
▁thick	-3793
▁thine	-3794
▁timid	-3795
▁train	-3796
▁treat	-3797
▁tries	-3798
▁trite	-3799
▁trust	-3800
▁turns	-3801
▁unspe	-3802
▁vanqu	-3803
▁vehic	-3804
▁venge	-3805
▁volun	-3806
▁wants	-3807
▁waste	-3808
▁waved	-3809
▁whats	-3810
▁wheel	-3811
▁wiped	-3812
▁woman	-3813
▁wrink	-3814
▁wrist	-3815
▁yours	-3816
Contest	-3817
OPTOSIS	-3818
adfasfd	-3819
andscap	-3820
asingly	-3821
berries	-3822
clusion	-3823
goodbye	-3824
ictable	-3825
ignment	-3826
imately	-3827
initely	-3828
irement	-3829
istance	-3830
lecting	-3831
lelight	-3832
ockwise	-3833
ruction	-3834
tenance	-3835
▁10,000	-3836
▁Alexia	-3837
▁Always	-3838
▁Amazon	-3839
▁Caesar	-3840
▁Canned	-3841
▁Choose	-3842
▁Create	-3843
▁Daniel	-3844
▁During	-3845
▁Except	-3846
▁Fusion	-3847
▁Horror	-3848
▁Humans	-3849
▁Interf	-3850
▁Little	-3851
▁London	-3852
▁Mostly	-3853
▁Nobody	-3854
▁People	-3855
▁Potato	-3856
▁Scared	-3857
▁Slowly	-3858
▁Sunset	-3859
▁Thirty	-3860
▁ablaze	-3861
▁accept	-3862
▁action	-3863
▁adopts	-3864
▁amount	-3865
▁answer	-3866
▁appear	-3867
▁atomic	-3868
▁backed	-3869
▁beaten	-3870
▁behold	-3871
▁beings	-3872
▁bloody	-3873
▁bubble	-3874
▁buckle	-3875
▁bullet	-3876
▁buried	-3877
▁button	-3878
▁called	-3879
▁calmly	-3880
▁canyon	-3881
▁carved	-3882
▁caused	-3883
▁chance	-3884
▁chased	-3885
▁chorus	-3886
▁chosen	-3887
▁claims	-3888
▁closer	-3889
▁cloudy	-3890
▁commun	-3891
▁cosmos	-3892
▁couple	-3893
▁course	-3894
▁coyote	-3895
▁cursed	-3896
▁curves	-3897
▁danced	-3898
▁deadly	-3899
▁deemed	-3900
▁deeply	-3901
▁defeat	-3902
▁doctor	-3903
▁embarr	-3904
▁embers	-3905
▁escape	-3906
▁etched	-3907
▁events	-3908
▁exited	-3909
▁expand	-3910
▁fading	-3911
▁fallen	-3912
▁fantas	-3913
▁finish	-3914
▁flavor	-3915
▁flight	-3916
▁forced	-3917
▁forces	-3918
▁forget	-3919
▁formed	-3920
▁fruits	-3921
▁frying	-3922
▁gather	-3923
▁giving	-3924
▁golden	-3925
▁grades	-3926
▁hunger	-3927
▁ignore	-3928
▁images	-3929
▁immers	-3930
▁indigo	-3931
▁injury	-3932
▁island	-3933
▁issued	-3934
▁jumped	-3935
▁latest	-3936
▁lichen	-3937
▁liquid	-3938
▁listed	-3939
▁listen	-3940
▁masses	-3941
▁master	-3942
▁mechan	-3943
▁member	-3944
▁merely	-3945
▁months	-3946
▁moving	-3947
▁murder	-3948
▁nature	-3949
▁nights	-3950
▁normal	-3951
▁opened	-3952
▁ornate	-3953
▁pacing	-3954
▁panels	-3955
▁paused	-3956
▁peered	-3957
▁picked	-3958
▁played	-3959
▁player	-3960
▁plenty	-3961
▁plunge	-3962
▁polish	-3963
▁powers	-3964
▁putrid	-3965
▁raised	-3966
▁recall	-3967
▁reddit	-3968
▁refuse	-3969
▁reject	-3970
▁remote	-3971
▁repeat	-3972
▁robbed	-3973
▁rolled	-3974
▁rustle	-3975
▁satisf	-3976
▁savior	-3977
▁seeing	-3978
▁series	-3979
▁served	-3980
▁settle	-3981
▁sevent	-3982
▁shadow	-3983
▁shaped	-3984
▁shiver	-3985
▁shovel	-3986
▁shower	-3987
▁silver	-3988
▁sirens	-3989
▁skills	-3990
▁smooth	-3991
▁solemn	-3992
▁spirit	-3993
▁square	-3994
▁stares	-3995
▁stream	-3996
▁strike	-3997
▁submit	-3998
▁swords	-3999
▁taking	-4000
▁talked	-4001
▁tattoo	-4002
▁threat	-4003
▁tongue	-4004
▁tossed	-4005
▁twelve	-4006
▁viscer	-4007
▁vision	-4008
▁wanker	-4009
▁warmth	-4010
▁washed	-4011
▁wonder	-4012
▁worthy	-4013
▁writer	-4014
▁yellow	-4015
iciously	-4016
ickering	-4017
lessness	-4018
llection	-4019
measures	-4020
ractical	-4021
ronaught	-4022
uminated	-4023
utionary	-4024
▁Alfredo	-4025
▁Awkward	-4026
▁Berries	-4027
▁Between	-4028
▁CENTRAL	-4029
▁CONTROL	-4030
▁Captain	-4031
▁Chicken	-4032
▁Citadel	-4033
▁Dialing	-4034
▁Exactly	-4035
▁Feeling	-4036
▁Genghis	-4037
▁Leaning	-4038
▁Lucifer	-4039
▁Narrate	-4040
▁Nothing	-4041
▁Prompts	-4042
▁Stories	-4043
▁Welcome	-4044
▁allowed	-4045
▁amazing	-4046
▁ancient	-4047
▁answers	-4048
▁appears	-4049
▁arrived	-4050
▁beaming	-4051
▁believe	-4052
▁berries	-4053
▁boredom	-4054
▁breaths	-4055
▁buttons	-4056
▁charged	-4057
▁checked	-4058
▁climbed	-4059
▁company	-4060
▁connect	-4061
▁conquer	-4062
▁contact	-4063
▁convers	-4064
▁corpses	-4065
▁created	-4066
▁crystal	-4067
▁curious	-4068
▁current	-4069
▁cutting	-4070
▁decided	-4071
▁default	-4072
▁denying	-4073
▁desired	-4074
▁destiny	-4075
▁discuss	-4076
▁distant	-4077
▁dripped	-4078
▁drunken	-4079
▁easiest	-4080
▁element	-4081
▁empathy	-4082
▁engines	-4083
▁evening	-4084
▁exhaust	-4085
▁figures	-4086
▁friends	-4087
▁fucking	-4088
▁gasping	-4089
▁grabbed	-4090
▁grandch	-4091
▁husband	-4092
▁improve	-4093
▁intense	-4094
▁journey	-4095
▁jumping	-4096
▁killing	-4097
▁kingdom	-4098
▁lullaby	-4099
▁magical	-4100
▁managed	-4101
▁meaning	-4102
▁members	-4103
▁monster	-4104
▁muffled	-4105
▁mystery	-4106
▁nations	-4107
▁nearest	-4108
▁nuclear	-4109
▁offline	-4110
▁passing	-4111
▁persons	-4112
▁possess	-4113
▁private	-4114
▁program	-4115
▁protect	-4116
▁pulling	-4117
▁purpose	-4118
▁pushing	-4119
▁reality	-4120
▁release	-4121
▁remains	-4122
▁remnant	-4123
▁respond	-4124
▁respons	-4125
▁robbers	-4126
▁running	-4127
▁sadness	-4128
▁sausage	-4129
▁selfish	-4130
▁service	-4131
▁settled	-4132
▁shimmer	-4133
▁shotgun	-4134
▁showing	-4135
▁similar	-4136
▁skinned	-4137
▁smaller	-4138
▁spiders	-4139
▁spilled	-4140
▁submiss	-4141
▁support	-4142
▁surface	-4143
▁teacher	-4144
▁tonight	-4145
▁touched	-4146
▁twinkle	-4147
▁upwards	-4148
▁useless	-4149
▁usually	-4150
▁vampire	-4151
▁version	-4152
▁village	-4153
▁waiting	-4154
▁warning	-4155
▁weapons	-4156
▁weather	-4157
▁wizards	-4158
▁workers	-4159
▁Although	-4160
▁Consider	-4161
▁Hogwarts	-4162
▁Internet	-4163
▁Napoleon	-4164
▁Remember	-4165
▁Southern	-4166
▁Suddenly	-4167
▁Surprise	-4168
▁Universe	-4169
▁Whatever	-4170
▁abundant	-4171
▁accident	-4172
▁addicted	-4173
▁although	-4174
▁approach	-4175
▁argument	-4176
▁attacked	-4177
▁basement	-4178
▁breathed	-4179
▁brightly	-4180
▁bringing	-4181
▁brothers	-4182
▁catching	-4183
▁chemical	-4184
▁chilling	-4185
▁climbing	-4186
▁complied	-4187
▁consumed	-4188
▁contrast	-4189
▁creation	-4190
▁daughter	-4191
▁defiance	-4192
▁deletion	-4193
▁delicate	-4194
▁designed	-4195
▁dialogue	-4196
▁discover	-4197
▁electric	-4198
▁emerging	-4199
▁ethereal	-4200
▁expected	-4201
▁fleeting	-4202
▁fourteen	-4203
▁glorious	-4204
▁grasping	-4205
▁greatest	-4206
▁homeless	-4207
▁improved	-4208
▁inspired	-4209
▁instruct	-4210
▁keyboard	-4211
▁launched	-4212
▁launches	-4213
▁lifeless	-4214
▁messages	-4215
▁military	-4216
▁mistakes	-4217
▁monsters	-4218
▁mushroom	-4219
▁opportun	-4220
▁original	-4221
▁overhead	-4222
▁peaceful	-4223
▁prepared	-4224
▁pressure	-4225
▁previous	-4226
▁provided	-4227
▁raindrop	-4228
▁reaction	-4229
▁recreate	-4230
▁reminder	-4231
▁reported	-4232
▁revolver	-4233
▁scholars	-4234
▁security	-4235
▁shameful	-4236
▁shatters	-4237
▁shelters	-4238
▁sprouted	-4239
▁starting	-4240
▁strained	-4241
▁strength	-4242
▁superior	-4243
▁survival	-4244
▁teenager	-4245
▁thinking	-4246
▁trickles	-4247
▁unlocked	-4248
▁upcoming	-4249
▁vanished	-4250
▁welcomed	-4251
▁wherever	-4252
▁withered	-4253
ortunately	-4254
ufacturers	-4255
▁APOPTOSIS	-4256
▁Breakdown	-4257
▁Clockwork	-4258
▁Countless	-4259
▁GoodDwarf	-4260
▁President	-4261
▁Processor	-4262
▁Riverspan	-4263
▁Searching	-4264
▁adventure	-4265
▁available	-4266
▁centuries	-4267
▁certainly	-4268
▁committed	-4269
▁complains	-4270
▁countless	-4271
▁crumbling	-4272
▁dangerous	-4273
▁direction	-4274
▁disturbed	-4275
▁diversity	-4276
▁forbidden	-4277
▁happiness	-4278
▁heartbeat	-4279
▁immediate	-4280
▁imperfect	-4281
▁increased	-4282
▁inherited	-4283
▁knowledge	-4284
▁lightning	-4285
▁locations	-4286
▁mountains	-4287
▁neighbors	-4288
▁nightmare	-4289
▁paperwork	-4290
▁paragraph	-4291
▁president	-4292
▁realizing	-4293
▁reminisce	-4294
▁represent	-4295
▁righteous	-4296
▁seemingly	-4297
▁societies	-4298
▁strangers	-4299
▁subreddit	-4300
▁throbbing	-4301
▁throwaway	-4302
▁travelled	-4303
▁vengeance	-4304
▁volunteer	-4305
▁worldwide	-4306
▁MEMORANDUM	-4307
▁MarContest	-4308
▁accomplish	-4309
▁appreciate	-4310
▁assignment	-4311
▁background	-4312
▁challenges	-4313
▁choreograp	-4314
▁compelling	-4315
▁definitely	-4316
▁depression	-4317
▁frequently	-4318
▁government	-4319
▁impossible	-4320
▁impossibly	-4321
▁pretending	-4322
▁remembered	-4323
▁retirement	-4324
▁technology	-4325
▁throughout	-4326
▁workaround	-4327
▁Established	-4328
▁Interfering	-4329
▁approaching	-4330
▁blueberries	-4331
▁candlelight	-4332
▁elimination	-4333
▁functioning	-4334
▁illuminated	-4335
▁impractical	-4336
▁predictable	-4337
▁unspeakable	-4338
▁disappointed	-4339
▁grandfathers	-4340
▁increasingly	-4341
▁recollection	-4342
▁WritingPrompts	-4343
▁countermeasures	-4344
''	-4345
-1	-4346
-3	-4347
.:	-4348
02	-4349
06	-4350
1.	-4351
15	-4352
17	-4353
3,	-4354
42	-4355
48	-4356
50	-4357
66	-4358
70	-4359
71	-4360
78	-4361
86	-4362
88	-4363
94	-4364
AC	-4365
AE	-4366
AH	-4367
AL	-4368
AT	-4369
AV	-4370
Am	-4371
Aq	-4372
Aw	-4373
BC	-4374
BK	-4375
BM	-4376
CI	-4377
CQ	-4378
CS	-4379
Cn	-4380
Cq	-4381
Cs	-4382
Cv	-4383
Cx	-4384
DN	-4385
DP	-4386
DQ	-4387
DZ	-4388
Dc	-4389
Dd	-4390
Dl	-4391
Do	-4392
Dr	-4393
EH	-4394
EP	-4395
ET	-4396
EY	-4397
Eo	-4398
Ex	-4399
*.	-4400
Bg	-4401
Bm	-4402
CK	-4403
Eg	-4404
FC	-4405
FD	-4406
FH	-4407
FJ	-4408
FQ	-4409
Fh	-4410
Fl	-4411
Fo	-4412
Fr	-4413
GB	-4414
GM	-4415
Ge	-4416
Gk	-4417
Gq	-4418
Gs	-4419
HE	-4420
HN	-4421
HZ	-4422
Hg	-4423
Hj	-4424
IN	-4425
IR	-4426
IW	-4427
IZ	-4428
Ic	-4429
Ir	-4430
It	-4431
JH	-4432
Jc	-4433
Jj	-4434
KM	-4435
KN	-4436
KZ	-4437
Kg	-4438
Ku	-4439
Kx	-4440
Ky	-4441
Kz	-4442
LN	-4443
LV	-4444
LX	-4445
Ld	-4446
Li	-4447
Ls	-4448
Lt	-4449
Lx	-4450
MJ	-4451
MO	-4452
Ma	-4453
Mo	-4454
NA	-4455
NE	-4456
NZ	-4457
OX	-4458
Ot	-4459
Ou	-4460
PM	-4461
PN	-4462
PW	-4463
Ph	-4464
Pr	-4465
Py	-4466
Qk	-4467
Qn	-4468
Qs	-4469
Qt	-4470
Qu	-4471
RE	-4472
RI	-4473
RU	-4474
RX	-4475
Ra	-4476
Rb	-4477
Re	-4478
SB	-4479
SF	-4480
SK	-4481
SM	-4482
Sb	-4483
Se	-4484
TE	-4485
TZ	-4486
Tf	-4487
Tq	-4488
Tw	-4489
Ty	-4490
UR	-4491
Ua	-4492
Ub	-4493
Ue	-4494
Us	-4495
VC	-4496
VJ	-4497
Vh	-4498
Vm	-4499
26	-4500
75	-4501
CV	-4502
Gf	-4503
HS	-4504
JN	-4505
Jq	-4506
Nr	-4507
PV	-4508
Pd	-4509
Pw	-4510
QW	-4511
RZ	-4512
Rl	-4513
Td	-4514
Vp	-4515
Vx	-4516
Vz	-4517
WG	-4518
WR	-4519
WV	-4520
Wl	-4521
XF	-4522
XG	-4523
XV	-4524
Xi	-4525
Xs	-4526
Xt	-4527
Xu	-4528
YV	-4529
YW	-4530
Yh	-4531
Yj	-4532
Ym	-4533
Yq	-4534
ZE	-4535
ZM	-4536
ZT	-4537
ZV	-4538
Zl	-4539
Zu	-4540
aN	-4541
aO	-4542
ai	-4543
bE	-4544
bJ	-4545
bR	-4546
bn	-4547
bv	-4548
bw	-4549
cC	-4550
cH	-4551
cW	-4552
cm	-4553
cy	-4554
dA	-4555
dF	-4556
dT	-4557
dY	-4558
db	-4559
dg	-4560
dl	-4561
eI	-4562
eQ	-4563
eg	-4564
fk	-4565
fr	-4566
fz	-4567
gL	-4568
gf	-4569
gs	-4570
gt	-4571
gu	-4572
gz	-4573
hL	-4574
hf	-4575
hn	-4576
iW	-4577
ij	-4578
jL	-4579
jU	-4580
jV	-4581
jW	-4582
jb	-4583
jm	-4584
jr	-4585
jx	-4586
kD	-4587
ks	-4588
lE	-4589
lW	-4590
lj	-4591
lp	-4592
lr	-4593
lt	-4594
mi	-4595
mo	-4596
nL	-4597
nP	-4598
nX	-4599
09	-4600
27	-4601
44	-4602
51	-4603
?!	-4604
BT	-4605
CM	-4606
Dt	-4607
Dy	-4608
Hx	-4609
ID	-4610
Iv	-4611
Kb	-4612
Ks	-4613
MQ	-4614
NW	-4615
Qq	-4616
Sg	-4617
TX	-4618
Ux	-4619
Vo	-4620
bz	-4621
fA	-4622
gc	-4623
iH	-4624
kF	-4625
mG	-4626
na	-4627
nc	-4628
nj	-4629
nn	-4630
no	-4631
oE	-4632
oF	-4633
oL	-4634
ob	-4635
ov	-4636
pf	-4637
pm	-4638
py	-4639
qG	-4640
qc	-4641
ql	-4642
qp	-4643
qx	-4644
rV	-4645
rW	-4646
rX	-4647
rY	-4648
rd	-4649
rr	-4650
sN	-4651
sO	-4652
sl	-4653
sm	-4654
tK	-4655
tk	-4656
tp	-4657
tt	-4658
tw	-4659
ua	-4660
vA	-4661
vL	-4662
vP	-4663
vt	-4664
vw	-4665
wd	-4666
xH	-4667
xR	-4668
xp	-4669
yG	-4670
yP	-4671
zH	-4672
zX	-4673
zd	-4674
zh	-4675
zo	-4676
zr	-4677
▁q	-4678
096	-4679
100	-4680
33.	-4681
335	-4682
394	-4683
439	-4684
630	-4685
638	-4686
800	-4687
980	-4688
AME	-4689
ASH	-4690
BiY	-4691
BnP	-4692
CBT	-4693
Civ	-4694
Dyj	-4695
ERH	-4696
Faq	-4697
GBJ	-4698
GiJ	-4699
07	-4700
49	-4701
79	-4702
Bq	-4703
Bs	-4704
CX	-4705
Ck	-4706
EO	-4707
GP	-4708
Io	-4709
Iu	-4710
Jw	-4711
LE	-4712
Lg	-4713
Pj	-4714
QP	-4715
Qv	-4716
Rs	-4717
XZ	-4718
Zc	-4719
iM	-4720
pP	-4721
pR	-4722
qk	-4723
uh	-4724
yf	-4725
''.	-4726
Bqb	-4727
CXM	-4728
EOQ	-4729
HZU	-4730
IJm	-4731
IuG	-4732
KHb	-4733
LXf	-4734
Pbe	-4735
Qkc	-4736
RLG	-4737
RsZ	-4738
SBZ	-4739
Tbc	-4740
Tcf	-4741
UaT	-4742
Wvc	-4743
XAp	-4744
XVj	-4745
YBu	-4746
ZCo	-4747
ZKM	-4748
ZPG	-4749
ZXZ	-4750
aUm	-4751
acs	-4752
ady	-4753
anE	-4754
aro	-4755
atC	-4756
awk	-4757
bac	-4758
ban	-4759
bcp	-4760
bid	-4761
bsm	-4762
cad	-4763
cel	-4764
che	-4765
des	-4766
dgH	-4767
ege	-4768
ern	-4769
ero	-4770
err	-4771
eue	-4772
eve	-4773
eyT	-4774
fJw	-4775
fed	-4776
ffY	-4777
fle	-4778
flo	-4779
fly	-4780
ghE	-4781
han	-4782
hor	-4783
iln	-4784
imy	-4785
irA	-4786
ius	-4787
ivy	-4788
jar	-4789
jhT	-4790
key	-4791
lez	-4792
lor	-4793
med	-4794
mic	-4795
mis	-4796
mor	-4797
nXI	-4798
ner	-4799
Fyu	-4800
Kou	-4801
TyV	-4802
cou	-4803
eds	-4804
erl	-4805
ker	-4806
ndo	-4807
not	-4808
now	-4809
obe	-4810
oca	-4811
ocr	-4812
oll	-4813
omz	-4814
oss	-4815
oun	-4816
pre	-4817
que	-4818
rag	-4819
ros	-4820
sce	-4821
sel	-4822
she	-4823
str	-4824
tan	-4825
thy	-4826
ubl	-4827
vMJ	-4828
vad	-4829
vet	-4830
wid	-4831
yet	-4832
yst	-4833
zdB	-4834
zon	-4835
▁15	-4836
▁80	-4837
▁Cs	-4838
▁Ev	-4839
▁GO	-4840
▁II	-4841
▁IS	-4842
▁Ku	-4843
▁Ml	-4844
▁Oy	-4845
▁SF	-4846
▁TF	-4847
▁TT	-4848
▁VN	-4849
▁Wo	-4850
▁Wr	-4851
▁bL	-4852
▁cR	-4853
▁cy	-4854
▁di	-4855
▁fU	-4856
▁fa	-4857
▁fc	-4858
▁fu	-4859
▁ga	-4860
▁hy	-4861
▁mM	-4862
▁mR	-4863
▁oe	-4864
▁ox	-4865
▁pi	-4866
▁pm	-4867
▁qV	-4868
▁ya	-4869
0869	-4870
2300	-4871
AMlr	-4872
ATER	-4873
AfZV	-4874
BQGD	-4875
BiCI	-4876
ChIi	-4877
CktK	-4878
CwaU	-4879
EVXr	-4880
EYJj	-4881
GUYm	-4882
IPOS	-4883
IVAL	-4884
Ioig	-4885
IsrX	-4886
KNid	-4887
KouU	-4888
Ksrr	-4889
LRLG	-4890
MBKz	-4891
MReQ	-4892
MaSO	-4893
OTED	-4894
OXpp	-4895
RICw	-4896
Rina	-4897
RmiP	-4898
SgUx	-4899
ITF	-4900
LSJ	-4901
Red	-4902
ZLq	-4903
bit	-4904
edC	-4905
elf	-4906
gat	-4907
ito	-4908
oic	-4909
sey	-4910
sit	-4911
ued	-4912
vis	-4913
yLN	-4914
▁Ab	-4915
▁cj	-4916
▁hj	-4917
AqEP	-4918
Grid	-4919
JDED	-4920
JqLi	-4921
LSJO	-4922
OKII	-4923
VbyP	-4924
Vnmi	-4925
Wing	-4926
XvHj	-4927
Zyav	-4928
ache	-4929
adas	-4930
adic	-4931
ales	-4932
andy	-4933
angh	-4934
anis	-4935
apor	-4936
appy	-4937
ario	-4938
arri	-4939
atte	-4940
avou	-4941
ayer	-4942
bean	-4943
bent	-4944
cQue	-4945
case	-4946
cede	-4947
cest	-4948
ckDQ	-4949
ders	-4950
dink	-4951
ecut	-4952
edal	-4953
edar	-4954
eded	-4955
eers	-4956
emes	-4957
empl	-4958
erds	-4959
erty	-4960
eter	-4961
ethe	-4962
etic	-4963
etre	-4964
exas	-4965
fare	-4966
ffod	-4967
fing	-4968
fwLs	-4969
gard	-4970
gers	-4971
ghed	-4972
gret	-4973
hedu	-4974
hend	-4975
hood	-4976
hren	-4977
ibSe	-4978
icar	-4979
icle	-4980
imic	-4981
inct	-4982
ineC	-4983
inse	-4984
iran	-4985
isen	-4986
itor	-4987
iven	-4988
ivia	-4989
izbv	-4990
lean	-4991
lers	-4992
lody	-4993
ming	-4994
ndas	-4995
ners	-4996
olen	-4997
omes	-4998
only	-4999
500	-5000
Com	-5001
Ent	-5002
Hld	-5003
May	-5004
ara	-5005
col	-5006
ees	-5007
esa	-5008
esy	-5009
hhh	-5010
ipt	-5011
kes	-5012
lic	-5013
xes	-5014
▁ef	-5015
▁lq	-5016
GPat	-5017
HldM	-5018
Sell	-5019
cara	-5020
ckon	-5021
enes	-5022
icid	-5023
obes	-5024
ocol	-5025
oria	-5026
orit	-5027
oroc	-5028
oron	-5029
oser	-5030
osta	-5031
othe	-5032
otiv	-5033
otsh	-5034
pRdD	-5035
phVU	-5036
pher	-5037
plVz	-5038
plom	-5039
port	-5040
pted	-5041
qual	-5042
rank	-5043
redi	-5044
reed	-5045
reek	-5046
rend	-5047
rise	-5048
ruis	-5049
same	-5050
sert	-5051
sing	-5052
sion	-5053
ston	-5054
ties	-5055
tles	-5056
uAmr	-5057
uced	-5058
uged	-5059
umed	-5060
utal	-5061
utch	-5062
velt	-5063
vous	-5064
wich	-5065
zkXu	-5066
▁60-	-5067
▁ALL	-5068
▁AND	-5069
▁ARE	-5070
▁App	-5071
▁Att	-5072
▁Boy	-5073
▁Com	-5074
▁Cth	-5075
▁Cur	-5076
▁Die	-5077
▁Dry	-5078
▁Flu	-5079
▁Fut	-5080
▁Has	-5081
▁Him	-5082
▁Hou	-5083
▁Jol	-5084
▁LOV	-5085
▁Las	-5086
▁Lif	-5087
▁Low	-5088
▁Lun	-5089
▁Mum	-5090
▁Off	-5091
▁Pan	-5092
▁Pri	-5093
▁RIP	-5094
▁Rit	-5095
▁Roy	-5096
▁See	-5097
▁Shy	-5098
▁Sox	-5099
EIV	-5100
EVA	-5101
Fan	-5102
IWw	-5103
JTC	-5104
Was	-5105
bon	-5106
con	-5107
hab	-5108
ket	-5109
ovQ	-5110
son	-5111
uan	-5112
udy	-5113
wan	-5114
▁Ty	-5115
▁gq	-5116
▁nh	-5117
Fanf	-5118
adon	-5119
aned	-5120
ateg	-5121
dred	-5122
gTLg	-5123
ores	-5124
orry	-5125
rior	-5126
▁845	-5127
▁Sty	-5128
▁Swe	-5129
▁Ten	-5130
▁Tom	-5131
▁Too	-5132
▁Tot	-5133
▁Tre	-5134
▁Trl	-5135
▁UPV	-5136
▁Use	-5137
▁Wal	-5138
▁Wat	-5139
▁Wet	-5140
▁Whe	-5141
▁Wit	-5142
▁Wow	-5143
▁YWc	-5144
▁ack	-5145
▁amu	-5146
▁bin	-5147
▁bon	-5148
▁cas	-5149
▁civ	-5150
▁clo	-5151
▁dab	-5152
▁das	-5153
▁din	-5154
▁diz	-5155
▁doe	-5156
▁dou	-5157
▁dre	-5158
▁dug	-5159
▁ell	-5160
▁fee	-5161
▁fes	-5162
▁fil	-5163
▁gau	-5164
▁gek	-5165
▁gem	-5166
▁gle	-5167
▁gum	-5168
▁har	-5169
▁hop	-5170
▁hut	-5171
▁hxR	-5172
▁inf	-5173
▁ing	-5174
▁ink	-5175
▁jar	-5176
▁jut	-5177
▁kar	-5178
▁las	-5179
▁lie	-5180
▁log	-5181
▁lum	-5182
▁lye	-5183
▁lzZ	-5184
▁mic	-5185
▁mis	-5186
▁mob	-5187
▁mum	-5188
▁nap	-5189
▁ner	-5190
▁nin	-5191
▁phe	-5192
▁pit	-5193
▁pli	-5194
▁pos	-5195
▁reb	-5196
▁ric	-5197
▁rom	-5198
▁san	-5199
MTf	-5200
apy	-5201
iot	-5202
klB	-5203
oye	-5204
pow	-5205
put	-5206
szZ	-5207
veP	-5208
yle	-5209
zle	-5210
▁Ph	-5211
▁WM	-5212
▁Wn	-5213
DZjx	-5214
LKVU	-5215
PklB	-5216
arty	-5217
enth	-5218
gend	-5219
orid	-5220
szZn	-5221
word	-5222
▁Let	-5223
▁Pop	-5224
▁Set	-5225
▁War	-5226
▁ZdD	-5227
▁bef	-5228
▁cot	-5229
▁dut	-5230
▁eve	-5231
▁hey	-5232
▁hot	-5233
▁lus	-5234
▁sir	-5235
▁sle	-5236
▁sli	-5237
▁sob	-5238
▁son	-5239
▁sta	-5240
▁tad	-5241
▁thE	-5242
▁thr	-5243
▁thu	-5244
▁tie	-5245
▁tin	-5246
▁toe	-5247
▁tor	-5248
▁toy	-5249
▁tul	-5250
▁txt	-5251
▁tyr	-5252
▁ult	-5253
▁und	-5254
▁unn	-5255
▁upv	-5256
▁vac	-5257
▁wet	-5258
▁wil	-5259
▁wou	-5260
▁wow	-5261
0182.	-5262
AfEIV	-5263
CXMMB	-5264
DZjxx	-5265
EOQzk	-5266
ERHyi	-5267
EYJji	-5268
HZUri	-5269
IJmbe	-5270
Maybe	-5271
Never	-5272
OVSBZ	-5273
Quest	-5274
YBuoF	-5275
acman	-5276
adden	-5277
ailed	-5278
alent	-5279
aline	-5280
allel	-5281
ampon	-5282
anged	-5283
anies	-5284
ansom	-5285
antly	-5286
arden	-5287
arked	-5288
asing	-5289
athed	-5290
ators	-5291
aying	-5292
azzle	-5293
balls	-5294
bcpOK	-5295
chant	-5296
creen	-5297
cules	-5298
cutor	-5299
CcY	-5300
DnA	-5301
LMX	-5302
Pab	-5303
ada	-5304
alP	-5305
avo	-5306
cmE	-5307
eal	-5308
etr	-5309
ety	-5310
idw	-5311
imO	-5312
met	-5313
net	-5314
sim	-5315
ucy	-5316
▁Gk	-5317
▁Xi	-5318
-300	-5319
acon	-5320
amel	-5321
apid	-5322
aths	-5323
atic	-5324
atly	-5325
dded	-5326
ilio	-5327
lamp	-5328
lent	-5329
oton	-5330
stic	-5331
yqcY	-5332
▁Ast	-5333
▁Ija	-5334
▁cic	-5335
▁dad	-5336
▁dim	-5337
▁doc	-5338
▁fal	-5339
▁hid	-5340
▁rot	-5341
▁tet	-5342
▁vom	-5343
YyqcY	-5344
alPbt	-5345
dUjhT	-5346
ddily	-5347
ellig	-5348
eming	-5349
empEH	-5350
eries	-5351
estic	-5352
frame	-5353
gated	-5354
gilio	-5355
grate	-5356
gzDnA	-5357
heist	-5358
hhhgh	-5359
icing	-5360
iless	-5361
iling	-5362
iller	-5363
imord	-5364
inate	-5365
indly	-5366
ional	-5367
istry	-5368
itals	-5369
itter	-5370
kerch	-5371
kered	-5372
lying	-5373
nails	-5374
occur	-5375
oding	-5376
oodly	-5377
ooked	-5378
oples	-5379
orary	-5380
oring	-5381
ority	-5382
ortal	-5383
othes	-5384
perto	-5385
phalt	-5386
pitch	-5387
pling	-5388
proud	-5389
qMBKz	-5390
raise	-5391
rayer	-5392
refle	-5393
rence	-5394
rible	-5395
riton	-5396
rizon	-5397
rones	-5398
rowed	-5399
WaA	-5400
Zke	-5401
kem	-5402
ram	-5403
rif	-5404
urd	-5405
uro	-5406
urs	-5407
xfA	-5408
▁64	-5409
▁Dg	-5410
▁Of	-5411
▁RF	-5412
▁UN	-5413
▁rI	-5414
▁ri	-5415
WaAg	-5416
acid	-5417
dith	-5418
iate	-5419
ific	-5420
ooke	-5421
pent	-5422
pled	-5423
seen	-5424
sein	-5425
▁Dri	-5426
▁Woo	-5427
▁aid	-5428
▁coo	-5429
▁dur	-5430
▁hoo	-5431
▁lur	-5432
▁phy	-5433
▁rit	-5434
▁row	-5435
▁tur	-5436
▁voc	-5437
AoxfA	-5438
DrZke	-5439
KuWaA	-5440
arlie	-5441
dinky	-5442
icked	-5443
ident	-5444
kempt	-5445
nWaAg	-5446
rupts	-5447
spike	-5448
terly	-5449
thood	-5450
ucent	-5451
udied	-5452
uding	-5453
ulars	-5454
ulius	-5455
ulous	-5456
ultit	-5457
urred	-5458
usket	-5459
ustin	-5460
vMJsu	-5461
vated	-5462
velop	-5463
verse	-5464
vices	-5465
views	-5466
wered	-5467
wling	-5468
zkXuQ	-5469
▁1917	-5470
▁7...	-5471
▁8452	-5472
▁Alas	-5473
▁Aver	-5474
▁Blog	-5475
▁Both	-5476
▁Call	-5477
▁Conc	-5478
▁Cube	-5479
▁Ever	-5480
▁Five	-5481
▁Ford	-5482
▁Fore	-5483
▁Four	-5484
▁Gand	-5485
▁GkPN	-5486
▁Hall	-5487
▁Here	-5488
▁Inst	-5489
▁Ital	-5490
▁Jack	-5491
▁Jedi	-5492
▁King	-5493
▁Kobe	-5494
▁Land	-5495
▁Lang	-5496
▁Last	-5497
▁Less	-5498
▁Many	-5499
Oop	-5500
Yhj	-5501
ZCt	-5502
amy	-5503
aux	-5504
bri	-5505
ech	-5506
rip	-5507
run	-5508
▁6.	-5509
▁BP	-5510
▁Bo	-5511
▁Hi	-5512
▁SO	-5513
....	-5514
FJTZ	-5515
NEWS	-5516
Oops	-5517
Wood	-5518
amat	-5519
ells	-5520
lebr	-5521
lies	-5522
mine	-5523
onel	-5524
riad	-5525
sers	-5526
that	-5527
ucks	-5528
▁Cra	-5529
▁Hon	-5530
▁San	-5531
▁cul	-5532
▁kid	-5533
▁ros	-5534
▁shy	-5535
▁unh	-5536
CqZCt	-5537
YhjcW	-5538
acred	-5539
ament	-5540
arted	-5541
oured	-5542
pring	-5543
utter	-5544
▁**14	-5545
▁MlUe	-5546
▁NAME	-5547
▁Nest	-5548
▁News	-5549
▁Nort	-5550
▁Pair	-5551
▁Pity	-5552
▁Publ	-5553
▁Soot	-5554
▁Stud	-5555
▁Town	-5556
▁Upon	-5557
▁VNyn	-5558
▁Wake	-5559
▁Wall	-5560
▁Went	-5561
▁Word	-5562
▁Work	-5563
▁YOUr	-5564
▁Year	-5565
▁ajar	-5566
▁alle	-5567
▁arom	-5568
▁asks	-5569
▁bass	-5570
▁bast	-5571
▁bean	-5572
▁bear	-5573
▁bend	-5574
▁bibl	-5575
▁bicy	-5576
▁bone	-5577
▁bore	-5578
▁boys	-5579
▁brid	-5580
▁bros	-5581
▁budd	-5582
▁cack	-5583
▁cake	-5584
▁cham	-5585
▁cjTc	-5586
▁cock	-5587
▁copy	-5588
▁crit	-5589
▁crus	-5590
▁dZKM	-5591
▁daze	-5592
▁dear	-5593
▁dine	-5594
▁dock	-5595
▁dont	-5596
▁dump	-5597
▁dyst	-5598
▁ebol	-5599
.''	-5600
145	-5601
SCC	-5602
cem	-5603
iff	-5604
num	-5605
olt	-5606
qiH	-5607
▁82	-5608
▁CC	-5609
▁Cr	-5610
DtGq	-5611
FjUp	-5612
OcHb	-5613
WaHx	-5614
alue	-5615
asty	-5616
cast	-5617
earl	-5618
pler	-5619
pore	-5620
rive	-5621
rmon	-5622
road	-5623
uite	-5624
wear	-5625
▁Ass	-5626
▁ach	-5627
▁neg	-5628
▁unw	-5629
▁vLK	-5630
AeCiv	-5631
DtGqn	-5632
Phone	-5633
berry	-5634
entil	-5635
ether	-5636
llars	-5637
river	-5638
roide	-5639
rored	-5640
rover	-5641
skins	-5642
wOcHb	-5643
▁Cast	-5644
▁Colt	-5645
▁Deep	-5646
▁Fall	-5647
▁Fing	-5648
▁Joll	-5649
▁Meat	-5650
▁Tied	-5651
▁atom	-5652
▁atop	-5653
▁bust	-5654
▁cher	-5655
▁curl	-5656
▁deed	-5657
▁enem	-5658
▁entr	-5659
▁exam	-5660
▁flac	-5661
▁flut	-5662
▁forl	-5663
▁foul	-5664
▁fund	-5665
▁furt	-5666
▁fuse	-5667
▁gain	-5668
▁glad	-5669
▁glam	-5670
▁gram	-5671
▁grun	-5672
▁gulf	-5673
▁gust	-5674
▁guts	-5675
▁hall	-5676
▁halo	-5677
▁hars	-5678
▁heat	-5679
▁hits	-5680
▁hour	-5681
▁hugg	-5682
▁hybr	-5683
▁incl	-5684
▁init	-5685
▁inte	-5686
▁isol	-5687
▁iter	-5688
▁jobs	-5689
▁joke	-5690
▁july	-5691
▁kiln	-5692
▁lain	-5693
▁lest	-5694
▁lied	-5695
▁limp	-5696
▁ling	-5697
▁manu	-5698
▁mary	-5699
Adp	-5700
HHR	-5701
ZMx	-5702
bag	-5703
eAn	-5704
iva	-5705
vyp	-5706
xSC	-5707
GAdp	-5708
ctar	-5709
ctly	-5710
mate	-5711
mosp	-5712
pack	-5713
pers	-5714
thic	-5715
unct	-5716
▁Act	-5717
▁Big	-5718
▁Did	-5719
▁obv	-5720
FQeAn	-5721
azily	-5722
cious	-5723
doxSC	-5724
ersey	-5725
night	-5726
▁Back	-5727
▁Mill	-5728
▁Sadd	-5729
▁Sold	-5730
▁Very	-5731
▁chad	-5732
▁chat	-5733
▁claw	-5734
▁emer	-5735
▁guil	-5736
▁lose	-5737
▁mast	-5738
▁mods	-5739
▁mole	-5740
▁muck	-5741
▁myth	-5742
▁nerv	-5743
▁nigh	-5744
▁nost	-5745
▁nozz	-5746
▁oeAV	-5747
▁page	-5748
▁paid	-5749
▁pave	-5750
▁peat	-5751
▁pell	-5752
▁pepp	-5753
▁pine	-5754
▁plus	-5755
▁pore	-5756
▁port	-5757
▁pray	-5758
▁prey	-5759
▁puff	-5760
▁pung	-5761
▁puzz	-5762
▁rant	-5763
▁rear	-5764
▁reen	-5765
▁rehe	-5766
▁rese	-5767
▁ripe	-5768
▁rout	-5769
▁rush	-5770
▁ruth	-5771
▁sack	-5772
▁sacs	-5773
▁sain	-5774
▁sang	-5775
▁scen	-5776
▁scoo	-5777
▁scra	-5778
▁scri	-5779
▁scur	-5780
▁sear	-5781
▁sell	-5782
▁shri	-5783
▁shun	-5784
▁sink	-5785
▁slay	-5786
▁slid	-5787
▁slum	-5788
▁soil	-5789
▁sore	-5790
▁spar	-5791
▁stab	-5792
▁stro	-5793
▁subl	-5794
▁subt	-5795
▁sulf	-5796
▁sust	-5797
▁swap	-5798
▁tail	-5799
bul	-5800
eUR	-5801
gel	-5802
hpi	-5803
▁Dr	-5804
▁Lo	-5805
▁vI	-5806
▁vk	-5807
▁vs	-5808
best	-5809
bgkD	-5810
bris	-5811
jLxE	-5812
usan	-5813
▁Hus	-5814
▁Nor	-5815
▁dog	-5816
▁eru	-5817
▁jit	-5818
▁wpm	-5819
OPhpi	-5820
andom	-5821
bgkDD	-5822
eURhp	-5823
erber	-5824
ewing	-5825
jLxEW	-5826
oices	-5827
spond	-5828
upied	-5829
▁Aang	-5830
▁Dear	-5831
▁Dust	-5832
▁Lets	-5833
▁abus	-5834
▁canc	-5835
▁circ	-5836
▁knot	-5837
▁meth	-5838
▁plug	-5839
▁ride	-5840
▁tank	-5841
▁targ	-5842
▁team	-5843
▁tent	-5844
▁thir	-5845
▁thou	-5846
▁tide	-5847
▁tire	-5848
▁tore	-5849
▁torm	-5850
▁tour	-5851
▁tren	-5852
▁tuck	-5853
▁uplo	-5854
▁upst	-5855
▁vIBQ	-5856
▁vint	-5857
▁wand	-5858
▁wars	-5859
▁wash	-5860
▁wear	-5861
▁week	-5862
▁west	-5863
▁wide	-5864
▁wins	-5865
▁wisp	-5866
▁wors	-5867
▁yank	-5868
▁zero	-5869
018439	-5870
AeCivb	-5871
BiCIFo	-5872
FJTZfz	-5873
GAdpEo	-5874
LZKNid	-5875
Reddit	-5876
UUUUUU	-5877
achute	-5878
anisms	-5879
arians	-5880
arsals	-5881
arting	-5882
assing	-5883
assive	-5884
attles	-5885
audlin	-5886
believ	-5887
bender	-5888
biotic	-5889
boards	-5890
cation	-5891
cealed	-5892
ceding	-5893
cedure	-5894
cesses	-5895
cognis	-5896
curate	-5897
effect	-5898
ements	-5899
001	-5900
OOT	-5901
QVp	-5902
dUz	-5903
iqs	-5904
qjU	-5905
uge	-5906
ula	-5907
AYkF	-5908
WVcl	-5909
cEhf	-5910
came	-5911
elig	-5912
iqsY	-5913
lant	-5914
opul	-5915
outu	-5916
pfYY	-5917
▁Hey	-5918
▁Pow	-5919
▁apt	-5920
▁gaz	-5921
▁org	-5922
▁sul	-5923
▁unc	-5924
▁wra	-5925
OOTZJ	-5926
QVpuf	-5927
aOZLq	-5928
antic	-5929
pfYYd	-5930
plete	-5931
sOdUz	-5932
vests	-5933
watch	-5934
xiJTC	-5935
▁Hark	-5936
▁Jell	-5937
▁Rece	-5938
▁Same	-5939
▁WMDs	-5940
▁aint	-5941
▁cant	-5942
▁dies	-5943
▁diff	-5944
▁fend	-5945
▁gods	-5946
▁leak	-5947
▁lime	-5948
▁loss	-5949
▁mash	-5950
▁sane	-5951
QVpufV	-5952
XviqsY	-5953
anting	-5954
ergart	-5955
estone	-5956
father	-5957
fforts	-5958
hDtGqn	-5959
hedral	-5960
hedule	-5961
icated	-5962
icidal	-5963
idents	-5964
iesced	-5965
igging	-5966
ightly	-5967
igious	-5968
ilians	-5969
ilight	-5970
illing	-5971
imally	-5972
irable	-5973
irling	-5974
ithful	-5975
ithing	-5976
kxiJTC	-5977
lantis	-5978
lemish	-5979
liPklB	-5980
liness	-5981
lorine	-5982
misery	-5983
ndness	-5984
ndrils	-5985
necked	-5986
ongued	-5987
onsors	-5988
oopers	-5989
oritos	-5990
oronto	-5991
orpore	-5992
osives	-5993
otshot	-5994
oughts	-5995
ousing	-5996
ousins	-5997
outing	-5998
overed	-5999
Tfp	-6000
dem	-6001
iqu	-6002
Bsms	-6003
VUbr	-6004
ieve	-6005
mCJc	-6006
otov	-6007
quar	-6008
rist	-6009
sequ	-6010
▁Tie	-6011
▁agg	-6012
▁byp	-6013
▁coa	-6014
▁peb	-6015
▁pie	-6016
▁pod	-6017
Bsmsm	-6018
ffirm	-6019
heart	-6020
iered	-6021
iques	-6022
istle	-6023
ndous	-6024
oused	-6025
quate	-6026
roach	-6027
ucing	-6028
urous	-6029
ygian	-6030
zChIi	-6031
▁200.	-6032
▁Dist	-6033
▁Post	-6034
▁cart	-6035
▁coll	-6036
▁exal	-6037
▁fact	-6038
▁fart	-6039
▁plot	-6040
▁pole	-6041
▁sake	-6042
▁seek	-6043
▁sequ	-6044
▁shif	-6045
▁spit	-6046
▁tart	-6047
CsVUbr	-6048
GPatQs	-6049
PMmCJc	-6050
demise	-6051
panied	-6052
pended	-6053
perate	-6054
powder	-6055
preced	-6056
prints	-6057
prises	-6058
rehend	-6059
riends	-6060
rition	-6061
ritive	-6062
rounds	-6063
ruptly	-6064
scendo	-6065
sembly	-6066
simile	-6067
soaked	-6068
tified	-6069
tpeter	-6070
ulated	-6071
unched	-6072
undanE	-6073
ustavo	-6074
verick	-6075
waOZLq	-6076
▁**335	-6077
▁1,000	-6078
▁1917,	-6079
▁Alumn	-6080
▁Brain	-6081
▁CELLS	-6082
▁Candy	-6083
▁Chief	-6084
▁China	-6085
▁Costa	-6086
▁Could	-6087
▁CthoE	-6088
▁Delhi	-6089
▁Deser	-6090
▁Diary	-6091
▁Disco	-6092
▁Doing	-6093
▁Edith	-6094
▁Enter	-6095
▁Ether	-6096
▁Going	-6097
▁Guang	-6098
▁Guerl	-6099
063	-6100
670	-6101
LxJ	-6102
apV	-6103
epy	-6104
▁-1	-6105
▁RG	-6106
alry	-6107
dark	-6108
inew	-6109
nine	-6110
nted	-6111
ntou	-6112
otry	-6113
shed	-6114
town	-6115
▁Ant	-6116
▁Gri	-6117
▁Gum	-6118
▁Gun	-6119
▁Opp	-6120
▁Out	-6121
▁arc	-6122
▁cob	-6123
▁dry	-6124
▁flu	-6125
LxJaq	-6126
actus	-6127
asure	-6128
eshed	-6129
irapt	-6130
isine	-6131
mates	-6132
urned	-6133
ustry	-6134
▁-167	-6135
▁Luna	-6136
▁Nice	-6137
▁Nine	-6138
▁Pong	-6139
▁Sure	-6140
▁ages	-6141
▁boom	-6142
▁coma	-6143
▁flic	-6144
▁inky	-6145
▁pour	-6146
▁sche	-6147
▁wine	-6148
arding	-6149
avalry	-6150
finger	-6151
ickers	-6152
renity	-6153
▁**670	-6154
▁Grief	-6155
▁Gummy	-6156
▁Hands	-6157
▁IjaIV	-6158
▁Kings	-6159
▁Langu	-6160
▁Laugh	-6161
▁Light	-6162
▁Looks	-6163
▁Marry	-6164
▁McQue	-6165
▁Other	-6166
▁Party	-6167
▁Pearl	-6168
▁Plain	-6169
▁Right	-6170
▁Rogue	-6171
▁Secre	-6172
▁Sharp	-6173
▁Stack	-6174
▁Steak	-6175
▁Styro	-6176
▁Texas	-6177
▁Think	-6178
▁Train	-6179
▁Trees	-6180
▁Turns	-6181
▁Twain	-6182
▁Untou	-6183
▁WATER	-6184
▁WHERE	-6185
▁Watch	-6186
▁World	-6187
▁Years	-6188
▁adorn	-6189
▁alarm	-6190
▁alche	-6191
▁allow	-6192
▁amate	-6193
▁among	-6194
▁ample	-6195
▁angry	-6196
▁ashes	-6197
▁aside	-6198
▁assem	-6199
***	-6200
TFx	-6201
avD	-6202
ivG	-6203
ols	-6204
qWU	-6205
NqWU	-6206
Wafo	-6207
aire	-6208
aved	-6209
coal	-6210
eTFx	-6211
free	-6212
gger	-6213
iciz	-6214
izop	-6215
olon	-6216
osis	-6217
pire	-6218
well	-6219
▁Bol	-6220
▁Jaw	-6221
▁Ran	-6222
▁Run	-6223
▁UYj	-6224
▁cip	-6225
▁fog	-6226
▁une	-6227
CSavD	-6228
DSivG	-6229
SHirA	-6230
dgHDP	-6231
habit	-6232
ortra	-6233
untle	-6234
▁Bell	-6235
▁Dang	-6236
▁Dire	-6237
▁Jawb	-6238
▁Path	-6239
▁Pick	-6240
▁Rest	-6241
▁Stri	-6242
▁UYjk	-6243
▁acqu	-6244
▁clen	-6245
▁faux	-6246
▁lift	-6247
▁prem	-6248
▁puts	-6249
▁race	-6250
▁skit	-6251
▁surn	-6252
▁unex	-6253
▁unim	-6254
▁vort	-6255
IDWafo	-6256
anches	-6257
enched	-6258
icates	-6259
ivered	-6260
reaker	-6261
▁avoid	-6262
▁aways	-6263
▁bears	-6264
▁beset	-6265
▁binoc	-6266
▁bleed	-6267
▁blind	-6268
▁board	-6269
▁bound	-6270
▁brain	-6271
▁broke	-6272
▁brows	-6273
▁calam	-6274
▁charm	-6275
▁chunk	-6276
▁cjTcp	-6277
▁clank	-6278
▁class	-6279
▁click	-6280
▁climb	-6281
▁coast	-6282
▁comed	-6283
▁conco	-6284
▁corre	-6285
▁cramp	-6286
▁crave	-6287
▁crowd	-6288
▁crows	-6289
▁crust	-6290
▁curse	-6291
▁daily	-6292
▁desol	-6293
▁diary	-6294
▁dissu	-6295
▁doubt	-6296
▁dried	-6297
▁drips	-6298
▁drops	-6299
298	-6300
afs	-6301
hTl	-6302
▁Uh	-6303
▁ip	-6304
BnPQ	-6305
QVlW	-6306
SJZT	-6307
TCug	-6308
Vbhh	-6309
agin	-6310
qume	-6311
▁Mag	-6312
▁lau	-6313
▁pip	-6314
▁rpP	-6315
▁smo	-6316
29848	-6317
GTCug	-6318
LQVlW	-6319
RsZzP	-6320
SJZTr	-6321
aging	-6322
igate	-6323
ilege	-6324
quick	-6325
qumeC	-6326
roact	-6327
▁Bang	-6328
▁Frid	-6329
▁ipod	-6330
▁site	-6331
▁tile	-6332
▁trag	-6333
▁twin	-6334
▁unne	-6335
CwaUkl	-6336
actory	-6337
inting	-6338
lessed	-6339
lessly	-6340
otherm	-6341
ouring	-6342
verber	-6343
▁Angel	-6344
▁First	-6345
▁Leafs	-6346
▁Magaz	-6347
▁Moroc	-6348
▁Wings	-6349
▁behav	-6350
▁crime	-6351
▁disse	-6352
▁dusty	-6353
▁dwind	-6354
▁earns	-6355
▁ebola	-6356
▁edges	-6357
▁energ	-6358
▁equal	-6359
▁eying	-6360
▁false	-6361
▁fence	-6362
▁fever	-6363
▁fires	-6364
▁fixes	-6365
▁flies	-6366
▁float	-6367
▁flour	-6368
▁flung	-6369
▁frant	-6370
▁fully	-6371
▁gazed	-6372
▁glaze	-6373
▁gradu	-6374
▁grain	-6375
▁grown	-6376
▁hates	-6377
▁hence	-6378
▁hesit	-6379
▁hired	-6380
▁homes	-6381
▁horns	-6382
▁huffs	-6383
▁humor	-6384
▁hypoc	-6385
▁idiot	-6386
▁impos	-6387
▁inner	-6388
▁instr	-6389
▁intro	-6390
▁invad	-6391
▁items	-6392
▁keeps	-6393
▁kills	-6394
▁knack	-6395
▁level	-6396
▁lever	-6397
▁lifes	-6398
▁liked	-6399
124	-6400
Ask	-6401
KZB	-6402
MAD	-6403
TCB	-6404
▁24	-6405
Then	-6406
lied	-6407
qVVh	-6408
rich	-6409
tend	-6410
zPgb	-6411
▁rav	-6412
▁tip	-6413
MADNZ	-6414
TCBOD	-6415
eqVVh	-6416
ified	-6417
ounce	-6418
tyard	-6419
zPgby	-6420
▁Bank	-6421
▁Dank	-6422
▁Save	-6423
▁bise	-6424
▁brow	-6425
▁cave	-6426
▁fogg	-6427
▁gren	-6428
▁rave	-6429
▁sank	-6430
▁slip	-6431
▁sudd	-6432
▁swam	-6433
▁swir	-6434
▁torn	-6435
▁vise	-6436
MADNZg	-6437
QtOKII	-6438
WRpRdD	-6439
eqVVhd	-6440
hening	-6441
hesion	-6442
inance	-6443
nderst	-6444
nessed	-6445
ricate	-6446
▁Darth	-6447
▁Learn	-6448
▁absol	-6449
▁bride	-6450
▁brown	-6451
▁clich	-6452
▁crawl	-6453
▁cream	-6454
▁drank	-6455
▁glist	-6456
▁maint	-6457
▁major	-6458
▁manip	-6459
▁mansl	-6460
▁means	-6461
▁meets	-6462
▁misty	-6463
▁mixed	-6464
▁mixes	-6465
▁model	-6466
▁moist	-6467
▁mossy	-6468
▁motiv	-6469
▁movie	-6470
▁nause	-6471
▁noble	-6472
▁noone	-6473
▁offer	-6474
▁often	-6475
▁outer	-6476
▁pages	-6477
▁pants	-6478
▁party	-6479
▁pedal	-6480
▁perfe	-6481
▁piled	-6482
▁pipes	-6483
▁playf	-6484
▁prest	-6485
▁prick	-6486
▁pulse	-6487
▁punct	-6488
▁purch	-6489
▁pursu	-6490
▁quell	-6491
▁radio	-6492
▁rainy	-6493
▁ranks	-6494
▁raved	-6495
▁refer	-6496
▁repet	-6497
▁rings	-6498
▁rinse	-6499
AnE	-6500
ZAn	-6501
jRU	-6502
kZu	-6503
Xxqs	-6504
abul	-6505
alks	-6506
jRUy	-6507
kZuK	-6508
lish	-6509
▁Beg	-6510
▁ade	-6511
▁cab	-6512
▁fab	-6513
ZAnbz	-6514
ddled	-6515
itled	-6516
ppled	-6517
utely	-6518
▁Been	-6519
▁Cont	-6520
▁Neat	-6521
▁appl	-6522
▁mund	-6523
▁ours	-6524
▁rund	-6525
▁slab	-6526
MojRUy	-6527
XxqsWl	-6528
atChat	-6529
auding	-6530
belief	-6531
imated	-6532
isions	-6533
kZuKFH	-6534
nglish	-6535
omzAnE	-6536
onated	-6537
worthy	-6538
▁Beans	-6539
▁Board	-6540
▁Talks	-6541
▁aches	-6542
▁appur	-6543
▁bonds	-6544
▁bunch	-6545
▁cents	-6546
▁creak	-6547
▁fancy	-6548
▁lunch	-6549
▁prose	-6550
▁ridic	-6551
▁rumin	-6552
▁rusty	-6553
▁scare	-6554
▁scoop	-6555
▁shack	-6556
▁shade	-6557
▁shake	-6558
▁share	-6559
▁sheep	-6560
▁sheer	-6561
▁shelf	-6562
▁shine	-6563
▁sinew	-6564
▁sings	-6565
▁skull	-6566
▁slate	-6567
▁slats	-6568
▁slick	-6569
▁slide	-6570
▁slimy	-6571
▁snugg	-6572
▁space	-6573
▁spear	-6574
▁spect	-6575
▁spent	-6576
▁spied	-6577
▁split	-6578
▁spoke	-6579
▁stats	-6580
▁stave	-6581
▁stems	-6582
▁style	-6583
▁succe	-6584
▁sugar	-6585
▁sulph	-6586
▁surge	-6587
▁swall	-6588
▁swell	-6589
▁swift	-6590
▁swing	-6591
▁sympt	-6592
▁tanks	-6593
▁teach	-6594
▁tense	-6595
▁terms	-6596
▁thank	-6597
▁thats	-6598
▁thumb	-6599
JCv	-6600
iXs	-6601
xTE	-6602
▁JO	-6603
LVtr	-6604
USGU	-6605
dZPG	-6606
deem	-6607
ynch	-6608
▁**3	-6609
▁Mia	-6610
▁jog	-6611
QniXs	-6612
cible	-6613
cross	-6614
icles	-6615
inary	-6616
osted	-6617
peror	-6618
tific	-6619
▁High	-6620
▁JOHN	-6621
▁Oper	-6622
▁Prel	-6623
▁bail	-6624
▁cord	-6625
▁dict	-6626
▁drab	-6627
▁hagg	-6628
▁join	-6629
GsKsrr	-6630
HHRxes	-6631
IEOQzk	-6632
JCvren	-6633
ailing	-6634
icides	-6635
imetre	-6636
ocking	-6637
paring	-6638
▁**308	-6639
▁Cruis	-6640
▁ELVtr	-6641
▁Lynch	-6642
▁Pound	-6643
▁Sound	-6644
▁Tires	-6645
▁adren	-6646
▁doors	-6647
▁draft	-6648
▁drawn	-6649
▁fount	-6650
▁greed	-6651
▁reads	-6652
▁scars	-6653
▁scary	-6654
▁soars	-6655
▁titan	-6656
▁tones	-6657
▁tower	-6658
▁track	-6659
▁traps	-6660
▁tread	-6661
▁treme	-6662
▁truck	-6663
▁twice	-6664
▁tying	-6665
▁unans	-6666
▁unful	-6667
▁urban	-6668
▁usher	-6669
▁vLKfF	-6670
▁value	-6671
▁vents	-6672
▁vfwLs	-6673
▁virus	-6674
▁waits	-6675
▁wakes	-6676
▁weary	-6677
▁weave	-6678
▁whine	-6679
▁whirl	-6680
▁whole	-6681
▁wield	-6682
▁woody	-6683
▁worry	-6684
▁worse	-6685
▁worst	-6686
▁yearn	-6687
ACgzDnA	-6688
AoxfAiP	-6689
BQGDxTE	-6690
DSivGXG	-6691
DZjxxIv	-6692
DrZkefj	-6693
IJmbePw	-6694
IJzChIi	-6695
KCYBuoF	-6696
OOTZJjr	-6697
QtOKIIH	-6698
VnmiLMX	-6699
KxW	-6700
Wze	-6701
aws	-6702
log	-6703
qdF	-6704
▁20	-6705
▁21	-6706
▁23	-6707
WzeX	-6708
atio	-6709
heSO	-6710
logs	-6711
▁Sub	-6712
▁Tog	-6713
▁Unf	-6714
▁caw	-6715
▁maw	-6716
▁nav	-6717
▁oRL	-6718
▁raw	-6719
KxWFj	-6720
Tcfis	-6721
These	-6722
ances	-6723
float	-6724
orses	-6725
qdFds	-6726
tower	-6727
▁Forg	-6728
▁Hold	-6729
▁Mold	-6730
▁Vict	-6731
▁evac	-6732
▁evol	-6733
▁haze	-6734
▁paws	-6735
AHWzeX	-6736
dlIoig	-6737
heSObn	-6738
please	-6739
▁Satur	-6740
▁catch	-6741
▁chase	-6742
▁clock	-6743
▁frict	-6744
▁knock	-6745
▁newsp	-6746
▁stove	-6747
▁waist	-6748
▁worsh	-6749
KxWFjOG	-6750
TcfisZc	-6751
Woodrow	-6752
YYvMJsu	-6753
ZAnbzqo	-6754
alPbtfF	-6755
amiliar	-6756
ampness	-6757
anation	-6758
anwhile	-6759
applied	-6760
aration	-6761
aterial	-6762
ationed	-6763
auchery	-6764
bcpOKvw	-6765
bodying	-6766
courage	-6767
cribing	-6768
eligent	-6769
ellious	-6770
empting	-6771
emption	-6772
entious	-6773
ffodils	-6774
ficiary	-6775
fucking	-6776
icizing	-6777
ightful	-6778
iliated	-6779
imental	-6780
innings	-6781
irRsZzP	-6782
iraptor	-6783
iration	-6784
ishable	-6785
lipping	-6786
mercial	-6787
njoying	-6788
ocolate	-6789
ondered	-6790
onflies	-6791
opation	-6792
orality	-6793
otonous	-6794
pective	-6795
qdFdsvP	-6796
reaking	-6797
redible	-6798
rorists	-6799
OPx	-6800
SIg	-6801
brz	-6802
meW	-6803
tso	-6804
EMWP	-6805
OGIZ	-6806
bows	-6807
foam	-6808
mend	-6809
sian	-6810
vels	-6811
▁Abr	-6812
▁HzX	-6813
▁arr	-6814
OGIZN	-6815
SIghe	-6816
letso	-6817
orida	-6818
rical	-6819
sical	-6820
▁Unre	-6821
▁baby	-6822
EMWPqW	-6823
ZXZOPx	-6824
attern	-6825
gulfed	-6826
ianity	-6827
meated	-6828
mering	-6829
pherds	-6830
uAmrPj	-6831
▁Bears	-6832
▁HzXNr	-6833
▁arise	-6834
▁beams	-6835
▁cards	-6836
▁entom	-6837
▁intru	-6838
▁rooms	-6839
▁stoic	-6840
SIgheAg	-6841
brother	-6842
jLxEWbg	-6843
licants	-6844
stained	-6845
stories	-6846
theless	-6847
thering	-6848
tongued	-6849
twining	-6850
ualized	-6851
ualties	-6852
uctures	-6853
unching	-6854
versely	-6855
vitated	-6856
worldly	-6857
▁**1145	-6858
▁**1630	-6859
▁**2300	-6860
▁629848	-6861
▁Abrams	-6862
▁Arizon	-6863
▁Atomic	-6864
▁Banner	-6865
▁Butter	-6866
▁Christ	-6867
▁Cities	-6868
▁Convey	-6869
▁Drones	-6870
▁Fallen	-6871
▁Forest	-6872
▁Inside	-6873
▁Jolted	-6874
▁Killer	-6875
▁Kindly	-6876
▁Lashed	-6877
▁Manhat	-6878
▁Nation	-6879
▁Patter	-6880
▁Poetry	-6881
▁Points	-6882
▁Portra	-6883
▁Prompt	-6884
▁Ritual	-6885
▁Russia	-6886
▁Scenes	-6887
▁Spring	-6888
▁Unable	-6889
▁Unless	-6890
▁WATERS	-6891
▁Walter	-6892
▁Wheels	-6893
▁Winner	-6894
▁Within	-6895
▁Worksh	-6896
▁YWcXVj	-6897
▁aching	-6898
▁agreed	-6899
EcE	-6900
box	-6901
▁30	-6902
AYOu	-6903
EcEA	-6904
Tond	-6905
czUp	-6906
insl	-6907
woke	-6908
▁600	-6909
▁Ken	-6910
.'...	-6911
394-1	-6912
ijing	-6913
orbed	-6914
ormtr	-6915
visor	-6916
▁Curt	-6917
▁Halo	-6918
▁Miss	-6919
▁mini	-6920
TondLE	-6921
apping	-6922
elands	-6923
ironed	-6924
jWAYOu	-6925
lemate	-6926
nXczUp	-6927
ologue	-6928
resses	-6929
▁Elias	-6930
▁Kenzo	-6931
▁Leave	-6932
▁broad	-6933
▁combo	-6934
▁criss	-6935
▁dress	-6936
▁fired	-6937
▁honor	-6938
▁inapp	-6939
▁invin	-6940
▁kinsl	-6941
▁wince	-6942
24394-1	-6943
quities	-6944
▁Almost	-6945
▁Curtis	-6946
▁Stress	-6947
▁access	-6948
▁adject	-6949
▁alleys	-6950
▁allows	-6951
▁annual	-6952
▁anyway	-6953
▁ascent	-6954
▁astral	-6955
▁atmosp	-6956
▁awhile	-6957
▁beacon	-6958
▁beaded	-6959
▁beasts	-6960
▁beckon	-6961
▁bended	-6962
▁bender	-6963
▁bestow	-6964
▁bobbed	-6965
▁boiled	-6966
▁bricks	-6967
▁bridge	-6968
▁bumped	-6969
▁bursts	-6970
▁bushes	-6971
▁career	-6972
▁caring	-6973
▁catast	-6974
▁caught	-6975
▁causes	-6976
▁celebr	-6977
▁cellar	-6978
▁charge	-6979
▁cheesy	-6980
▁clawed	-6981
▁clicks	-6982
▁clutch	-6983
▁colour	-6984
▁common	-6985
▁cooled	-6986
▁cooler	-6987
▁cradle	-6988
▁craved	-6989
▁crimes	-6990
▁crimin	-6991
▁damned	-6992
▁danger	-6993
▁darken	-6994
▁darted	-6995
▁dating	-6996
▁deaths	-6997
▁decade	-6998
▁decent	-6999
Why	-7000
eGM	-7001
fjW	-7002
hyd	-7003
pris	-7004
Flame	-7005
ainee	-7006
ampoo	-7007
bacco	-7008
cline	-7009
inels	-7010
ipsis	-7011
ordia	-7012
print	-7013
ronic	-7014
udfjW	-7015
unger	-7016
▁Atop	-7017
▁Camp	-7018
▁Defe	-7019
▁Shay	-7020
▁Shit	-7021
▁belt	-7022
▁calf	-7023
▁cube	-7024
▁exud	-7025
▁fair	-7026
▁oxyg	-7027
▁pair	-7028
▁synt	-7029
▁tops	-7030
efully	-7031
phants	-7032
ronome	-7033
rowave	-7034
▁Berri	-7035
▁Guess	-7036
▁Waves	-7037
▁abhor	-7038
▁accom	-7039
▁agony	-7040
▁caves	-7041
▁concl	-7042
▁crept	-7043
▁dehyd	-7044
▁dimin	-7045
▁fours	-7046
▁hover	-7047
▁jewel	-7048
▁local	-7049
▁paced	-7050
▁steak	-7051
bulance	-7052
fective	-7053
iminary	-7054
versing	-7055
▁Hunger	-7056
▁Really	-7057
▁Shayne	-7058
▁afloat	-7059
▁approx	-7060
▁asleep	-7061
▁decept	-7062
▁democr	-7063
▁desire	-7064
▁dinner	-7065
▁disuse	-7066
▁drains	-7067
▁draped	-7068
▁driven	-7069
▁earthy	-7070
▁easily	-7071
▁easing	-7072
▁echoed	-7073
▁edited	-7074
▁effect	-7075
▁egoist	-7076
▁eleven	-7077
▁employ	-7078
▁energy	-7079
▁enters	-7080
▁entity	-7081
▁eradic	-7082
▁execut	-7083
▁expect	-7084
▁exuded	-7085
▁facade	-7086
▁facial	-7087
▁famine	-7088
▁fanfic	-7089
▁father	-7090
▁feared	-7091
▁finder	-7092
▁flames	-7093
▁flower	-7094
▁flowin	-7095
▁flying	-7096
▁former	-7097
▁fought	-7098
▁freely	-7099
602	-7100
oda	-7101
8665	-7102
XtIs	-7103
hips	-7104
soap	-7105
▁pup	-7106
enses	-7107
izens	-7108
mXtIs	-7109
nLffY	-7110
▁**10	-7111
▁Shod	-7112
▁Yoda	-7113
▁bits	-7114
▁burd	-7115
▁extr	-7116
▁fert	-7117
▁runs	-7118
▁tons	-7119
▁wits	-7120
ensity	-7121
ership	-7122
hipers	-7123
▁Starb	-7124
▁Using	-7125
▁adapt	-7126
▁recip	-7127
▁relat	-7128
▁steal	-7129
▁usual	-7130
TdnLffY	-7131
iciness	-7132
imilate	-7133
plained	-7134
zymXtIs	-7135
▁**1602	-7136
▁Curled	-7137
▁Gerber	-7138
▁Sheesh	-7139
▁anchor	-7140
▁beside	-7141
▁burial	-7142
▁docked	-7143
▁dreamt	-7144
▁freeze	-7145
▁friend	-7146
▁futile	-7147
▁gained	-7148
▁garden	-7149
▁gashed	-7150
▁ghosts	-7151
▁gifted	-7152
▁handle	-7153
▁hatred	-7154
▁heaped	-7155
▁hearts	-7156
▁heated	-7157
▁height	-7158
▁helped	-7159
▁herded	-7160
▁hooked	-7161
▁houses	-7162
▁hovers	-7163
▁hybrid	-7164
▁impact	-7165
▁import	-7166
▁incorp	-7167
▁indeed	-7168
▁inject	-7169
▁injust	-7170
▁insane	-7171
▁invest	-7172
▁inward	-7173
▁jacket	-7174
▁jewels	-7175
▁juices	-7176
▁keeper	-7177
▁knight	-7178
▁landed	-7179
▁lasers	-7180
▁lazily	-7181
▁leader	-7182
▁linked	-7183
▁longed	-7184
▁loudly	-7185
▁lovers	-7186
▁makesh	-7187
▁manual	-7188
▁marked	-7189
▁masked	-7190
▁melody	-7191
▁mental	-7192
▁messes	-7193
▁minute	-7194
▁mocked	-7195
▁monkey	-7196
▁movies	-7197
▁mushro	-7198
▁mystic	-7199
VnD	-7200
XLd	-7201
bga	-7202
phf	-7203
toe	-7204
▁zw	-7205
anny	-7206
gedy	-7207
jmcQ	-7208
lEFh	-7209
oots	-7210
rsIc	-7211
udan	-7212
▁Gek	-7213
▁PVp	-7214
▁cub	-7215
▁eek	-7216
VnDOc	-7217
XLdMB	-7218
annel	-7219
cloth	-7220
rophe	-7221
rsIcL	-7222
sured	-7223
▁Acid	-7224
▁Foot	-7225
▁PVpj	-7226
▁fash	-7227
▁frat	-7228
▁inne	-7229
▁poun	-7230
▁sili	-7231
▁smud	-7232
▁zwDn	-7233
XLdMBG	-7234
jmcQHg	-7235
lEFhfw	-7236
rative	-7237
selves	-7238
▁Aster	-7239
▁Roots	-7240
▁Sudan	-7241
▁amuse	-7242
▁beats	-7243
▁blaze	-7244
▁cheek	-7245
▁copes	-7246
▁feats	-7247
▁incap	-7248
▁talks	-7249
▁trash	-7250
AMlrphf	-7251
VnDOcMQ	-7252
hington	-7253
▁Forget	-7254
▁Marble	-7255
▁PVpjfk	-7256
▁bleats	-7257
▁drones	-7258
▁exists	-7259
▁harder	-7260
▁levity	-7261
▁marred	-7262
▁narrow	-7263
▁neared	-7264
▁nearly	-7265
▁nectar	-7266
▁nobody	-7267
▁noodly	-7268
▁nozzle	-7269
▁offers	-7270
▁oppose	-7271
▁orange	-7272
▁outnum	-7273
▁oxygen	-7274
▁paints	-7275
▁passes	-7276
▁patron	-7277
▁paying	-7278
▁penetr	-7279
▁pepper	-7280
▁pierce	-7281
▁planes	-7282
▁plight	-7283
▁points	-7284
▁police	-7285
▁policy	-7286
▁prints	-7287
▁prison	-7288
▁public	-7289
▁pushed	-7290
▁pushes	-7291
▁rained	-7292
▁random	-7293
▁reader	-7294
▁reaped	-7295
▁recept	-7296
▁recogn	-7297
▁regret	-7298
▁relied	-7299
PLZ	-7300
kyS	-7301
▁AIs	-7302
▁Sky	-7303
jbkyS	-7304
▁Kurt	-7305
▁Twas	-7306
▁nurt	-7307
▁odcH	-7308
▁rude	-7309
▁silo	-7310
▁woad	-7311
▁woes	-7312
acized	-7313
culine	-7314
italia	-7315
leader	-7316
urface	-7317
▁Brown	-7318
▁Clean	-7319
▁Exile	-7320
▁Fires	-7321
▁Twins	-7322
▁Vault	-7323
▁based	-7324
▁games	-7325
▁guilt	-7326
▁holds	-7327
▁honey	-7328
▁latch	-7329
▁lined	-7330
▁marks	-7331
▁panel	-7332
▁panic	-7333
▁pitch	-7334
▁visit	-7335
ibility	-7336
jbkySuu	-7337
▁**1000	-7338
▁Shangh	-7339
▁Taking	-7340
▁afford	-7341
▁apolog	-7342
▁assass	-7343
▁assure	-7344
▁casted	-7345
▁flexed	-7346
▁grants	-7347
▁hungry	-7348
▁locals	-7349
▁mighty	-7350
▁paired	-7351
▁plants	-7352
▁remove	-7353
▁rented	-7354
▁repair	-7355
▁reread	-7356
▁rested	-7357
▁rewind	-7358
▁riding	-7359
▁rights	-7360
▁ripped	-7361
▁rotten	-7362
▁rubbed	-7363
▁saliva	-7364
▁sanity	-7365
▁saving	-7366
▁saying	-7367
▁scraps	-7368
▁sdoxSC	-7369
▁seated	-7370
▁senses	-7371
▁serial	-7372
▁showed	-7373
▁shriek	-7374
▁shroud	-7375
▁silent	-7376
▁simult	-7377
▁sinner	-7378
▁skiing	-7379
▁slaves	-7380
▁sliver	-7381
▁slower	-7382
▁sounds	-7383
▁specul	-7384
▁spring	-7385
▁squawk	-7386
▁starts	-7387
▁steals	-7388
▁steamy	-7389
▁sticks	-7390
▁stings	-7391
▁stones	-7392
▁stride	-7393
▁strive	-7394
▁struck	-7395
▁subtle	-7396
▁suited	-7397
▁sulfur	-7398
▁sunset	-7399
Fxi	-7400
GGV	-7401
MWa	-7402
USp	-7403
ugs	-7404
ExzH	-7405
MWaZ	-7406
medi	-7407
webs	-7408
▁25:	-7409
▁Gov	-7410
▁aug	-7411
▁err	-7412
USpJN	-7413
ilson	-7414
▁Warm	-7415
▁bunk	-7416
▁fury	-7417
▁gait	-7418
▁push	-7419
▁robs	-7420
▁tugs	-7421
USpJNz	-7422
VbyPfp	-7423
aneous	-7424
edback	-7425
ramble	-7426
ucting	-7427
▁Laque	-7428
▁Plans	-7429
▁Revel	-7430
▁aroma	-7431
▁await	-7432
▁brush	-7433
▁corru	-7434
▁error	-7435
▁fools	-7436
▁gases	-7437
▁gifts	-7438
▁naked	-7439
▁saucy	-7440
▁trunk	-7441
▁vExzH	-7442
eningly	-7443
mediary	-7444
▁Guards	-7445
▁Plenty	-7446
▁Wilson	-7447
▁august	-7448
▁bodied	-7449
▁bodily	-7450
▁decide	-7451
▁failed	-7452
▁racked	-7453
▁rancid	-7454
▁resort	-7455
▁sanded	-7456
▁supply	-7457
▁surely	-7458
▁surged	-7459
▁swings	-7460
▁system	-7461
▁taught	-7462
▁thanks	-7463
▁thinks	-7464
▁thirty	-7465
▁thread	-7466
▁thrust	-7467
▁thumbs	-7468
▁timing	-7469
▁tomato	-7470
▁toward	-7471
▁towers	-7472
▁transf	-7473
▁transl	-7474
▁transm	-7475
▁tropes	-7476
▁truths	-7477
▁turbid	-7478
▁twists	-7479
▁unable	-7480
▁uncles	-7481
▁unfold	-7482
▁unfore	-7483
▁unforg	-7484
▁unfulf	-7485
▁unholy	-7486
▁unlike	-7487
▁upside	-7488
▁useful	-7489
▁vainly	-7490
▁ventil	-7491
▁victor	-7492
▁visage	-7493
▁vortex	-7494
▁waited	-7495
▁warmer	-7496
▁wastes	-7497
▁waving	-7498
▁weight	-7499
DUw	-7500
hhJ	-7501
▁97	-7502
AmHS	-7503
Ltvt	-7504
mosf	-7505
zkRm	-7506
DUwIR	-7507
dLtvt	-7508
erina	-7509
sheet	-7510
▁9765	-7511
▁Rina	-7512
▁earl	-7513
▁logo	-7514
▁size	-7515
ablish	-7516
ffered	-7517
shment	-7518
▁Const	-7519
▁Rmosf	-7520
▁ahead	-7521
▁cargo	-7522
▁fades	-7523
▁fresh	-7524
▁raped	-7525
▁ships	-7526
▁soapy	-7527
QqDUwIR	-7528
UbdLtvt	-7529
▁Beyond	-7530
▁Virgin	-7531
▁burned	-7532
▁ceased	-7533
▁crumbs	-7534
▁demand	-7535
▁demons	-7536
▁differ	-7537
▁hushed	-7538
▁petrif	-7539
▁potato	-7540
▁recent	-7541
▁result	-7542
▁seashe	-7543
▁shitty	-7544
▁sliced	-7545
▁sparks	-7546
▁wholes	-7547
▁wildly	-7548
▁willow	-7549
▁winter	-7550
▁wished	-7551
▁worker	-7552
▁worlds	-7553
▁wounds	-7554
▁wrecks	-7555
▁yelled	-7556
▁zipped	-7557
▁zombie	-7558
AeFJTZfz	-7559
IuGrsIcL	-7560
JDEDzkRm	-7561
MADNZgyi	-7562
PbebgkDD	-7563
RIJzChIi	-7564
XiBiCIFo	-7565
XvHjoutu	-7566
XxqsWlFD	-7567
actments	-7568
aginably	-7569
aneously	-7570
aporated	-7571
attering	-7572
believed	-7573
briation	-7574
bsmacked	-7575
ensional	-7576
ergarten	-7577
ervation	-7578
hAoxfAiP	-7579
igations	-7580
imOOVSBZ	-7581
inctiven	-7582
inescent	-7583
isenberg	-7584
ithering	-7585
mentally	-7586
nowledge	-7587
ological	-7588
osterous	-7589
othermia	-7590
personel	-7591
pertoire	-7592
quarters	-7593
rendered	-7594
retching	-7595
ropriate	-7596
roverted	-7597
tificial	-7598
tleships	-7599
220	-7600
Iguu	-7601
Entcz	-7602
gives	-7603
ipton	-7604
lects	-7605
▁brah	-7606
▁legs	-7607
▁snow	-7608
fields	-7609
hLIguu	-7610
▁Await	-7611
▁Roose	-7612
▁Steam	-7613
▁badly	-7614
▁berry	-7615
▁denim	-7616
▁loose	-7617
▁races	-7618
▁sixth	-7619
▁symph	-7620
▁tides	-7621
▁whims	-7622
picious	-7623
▁**1220	-7624
▁**1405	-7625
▁Austin	-7626
▁Lipton	-7627
▁Resume	-7628
▁amazed	-7629
▁autumn	-7630
▁barest	-7631
▁cement	-7632
▁cheeks	-7633
▁erotic	-7634
▁exotic	-7635
▁french	-7636
▁fucker	-7637
▁hiding	-7638
▁illust	-7639
▁median	-7640
▁merged	-7641
▁places	-7642
▁source	-7643
▁tinyer	-7644
▁traces	-7645
▁versed	-7646
▁wander	-7647
LKVUIsrX	-7648
lighting	-7649
uAmrPjPr	-7650
ultitude	-7651
unending	-7652
xHEMWPqW	-7653
▁250,000	-7654
▁Anticip	-7655
▁Arizona	-7656
▁Assimil	-7657
▁Awesome	-7658
▁Blessed	-7659
▁Casting	-7660
▁Channel	-7661
▁Covered	-7662
▁Dappled	-7663
▁Doritos	-7664
▁Dressed	-7665
▁Essence	-7666
▁Florida	-7667
▁Getting	-7668
▁Gustavo	-7669
▁However	-7670
▁IjaIVXI	-7671
▁Instead	-7672
▁Italian	-7673
▁Keeping	-7674
▁Keletso	-7675
▁Kingdom	-7676
▁KuzkXuQ	-7677
▁Longest	-7678
▁Looming	-7679
▁Marines	-7680
▁Mocking	-7681
▁MundanE	-7682
▁PVpjfkL	-7683
▁Playing	-7684
▁Pointed	-7685
▁Possess	-7686
▁Powered	-7687
▁Putting	-7688
▁SatChat	-7689
▁Searing	-7690
▁Serious	-7691
▁Sharing	-7692
▁Sinking	-7693
▁Someday	-7694
▁Stacked	-7695
▁Staring	-7696
▁Subject	-7697
▁Surpris	-7698
▁Totally	-7699
41.	-7700
998	-7701
FCw	-7702
REV	-7703
Vwl	-7704
aLK	-7705
fpi	-7706
gTH	-7707
hoG	-7708
iBm	-7709
loM	-7710
luA	-7711
uAu	-7712
xyn	-7713
zzC	-7714
▁Qw	-7715
▁ZF	-7716
89',	-7717
LMuh	-7718
They	-7719
WviV	-7720
luAG	-7721
▁12!	-7722
▁365	-7723
▁423	-7724
▁HIS	-7725
▁ivy	-7726
▁zyg	-7727
0182,	-7728
INiBm	-7729
OtFCw	-7730
WLMuh	-7731
arlic	-7732
ervor	-7733
fpiCx	-7734
loMGk	-7735
qIhoG	-7736
veyed	-7737
veyor	-7738
xynCV	-7739
zzCZP	-7740
▁Cape	-7741
▁Gosp	-7742
▁Grey	-7743
▁Keep	-7744
▁Used	-7745
▁Wrap	-7746
▁bomb	-7747
▁eggs	-7748
▁fulf	-7749
▁harl	-7750
XOtFCw	-7751
cqIhoG	-7752
linter	-7753
loMGkO	-7754
semble	-7755
▁1941.	-7756
▁Decem	-7757
▁crazy	-7758
▁grunt	-7759
▁mWviV	-7760
▁nasty	-7761
▁rogue	-7762
▁sucks	-7763
▁threw	-7764
REVIVAL	-7765
xynCVRa	-7766
▁FINiBm	-7767
▁cactus	-7768
▁fervor	-7769
▁garlic	-7770
▁legacy	-7771
▁sights	-7772
▁specks	-7773
EVXrgTLg	-7774
▁Charlie	-7775
▁Gospels	-7776
▁Underst	-7777
▁Watcher	-7778
▁Whoever	-7779
▁abandon	-7780
▁admired	-7781
▁anchors	-7782
▁asphalt	-7783
▁atheist	-7784
▁attacks	-7785
▁awesome	-7786
▁awkward	-7787
▁balance	-7788
▁bearing	-7789
▁becomes	-7790
▁bedroom	-7791
▁bedside	-7792
▁beloved	-7793
▁benders	-7794
▁bending	-7795
▁bicycle	-7796
▁blemish	-7797
▁blessed	-7798
▁blocked	-7799
BlSb	-7800
▁urn	-7801
BlSba	-7802
archy	-7803
borne	-7804
eenth	-7805
▁Bros	-7806
▁Swap	-7807
▁shoe	-7808
IBlSba	-7809
SgUxFy	-7810
▁Boyle	-7811
▁Human	-7812
▁Seems	-7813
▁Sword	-7814
▁citad	-7815
▁eager	-7816
▁fuses	-7817
▁hilar	-7818
▁nails	-7819
▁ports	-7820
▁signs	-7821
▁tails	-7822
▁urges	-7823
▁veins	-7824
fIDWafo	-7825
querade	-7826
rageous	-7827
vestock	-7828
▁BpfYYd	-7829
▁Unlike	-7830
▁crucif	-7831
▁digits	-7832
▁doomed	-7833
▁estate	-7834
▁joints	-7835
▁molten	-7836
▁oceans	-7837
▁petals	-7838
▁petrol	-7839
▁placed	-7840
▁purgat	-7841
▁raging	-7842
▁saints	-7843
▁search	-7844
▁unborn	-7845
▁wilted	-7846
cognized	-7847
cussions	-7848
kxiJTCep	-7849
spondent	-7850
▁anarchy	-7851
▁battled	-7852
▁boiling	-7853
▁bonfire	-7854
▁bracket	-7855
▁breathe	-7856
▁bringer	-7857
▁cameras	-7858
▁canteen	-7859
▁captive	-7860
▁capture	-7861
▁centers	-7862
▁chained	-7863
▁charade	-7864
▁charity	-7865
▁chasing	-7866
▁chatted	-7867
▁chewing	-7868
▁choices	-7869
▁choking	-7870
▁churned	-7871
▁ciphers	-7872
▁clearly	-7873
▁cleaved	-7874
▁closely	-7875
▁closest	-7876
▁closing	-7877
▁clothes	-7878
▁clouded	-7879
▁coldest	-7880
▁colored	-7881
▁colours	-7882
▁comfort	-7883
▁comical	-7884
▁concept	-7885
▁condoms	-7886
▁content	-7887
▁contest	-7888
▁corpore	-7889
▁counted	-7890
▁courage	-7891
▁cracked	-7892
▁cracker	-7893
▁crafter	-7894
▁craving	-7895
▁crossed	-7896
▁cubicle	-7897
▁curtain	-7898
▁dangers	-7899
OXppT	-7900
▁CsUs	-7901
▁**980	-7902
▁dizzy	-7903
▁logic	-7904
▁viral	-7905
▁women	-7906
Welcome	-7907
captain	-7908
▁CsUsiW	-7909
▁Having	-7910
▁Option	-7911
▁banner	-7912
▁firmly	-7913
▁grinds	-7914
▁option	-7915
▁racing	-7916
▁shores	-7917
▁softly	-7918
▁sorrow	-7919
▁speaks	-7920
▁tanned	-7921
▁ticket	-7922
▁tragic	-7923
▁unmist	-7924
▁wishes	-7925
▁wither	-7926
umentary	-7927
▁Arrived	-7928
▁Corpore	-7929
▁Dancing	-7930
▁Driving	-7931
▁Leaving	-7932
▁Someone	-7933
▁Turning	-7934
▁briefly	-7935
▁crunchy	-7936
▁dealing	-7937
▁deepest	-7938
▁deluged	-7939
▁departs	-7940
▁descent	-7941
▁designs	-7942
▁despair	-7943
▁despise	-7944
▁despite	-7945
▁develop	-7946
▁diffuse	-7947
▁digging	-7948
▁disused	-7949
▁doctors	-7950
▁doorway	-7951
▁drastic	-7952
▁dressed	-7953
▁durable	-7954
▁dutiful	-7955
▁earthly	-7956
▁efforts	-7957
▁employe	-7958
▁enemies	-7959
▁entered	-7960
▁entries	-7961
▁erupted	-7962
▁escapes	-7963
▁existed	-7964
▁expires	-7965
▁exposed	-7966
▁extract	-7967
▁facades	-7968
▁failing	-7969
▁failure	-7970
▁fantasy	-7971
▁fathers	-7972
▁fifteen	-7973
▁figured	-7974
▁finding	-7975
▁firefly	-7976
▁flaring	-7977
▁flexing	-7978
▁fogging	-7979
▁forearm	-7980
▁forests	-7981
▁forgive	-7982
▁forlorn	-7983
▁forming	-7984
▁formula	-7985
▁fratern	-7986
▁furious	-7987
▁gathers	-7988
▁gauntle	-7989
▁gifting	-7990
▁glanced	-7991
▁glaring	-7992
▁gliding	-7993
▁granted	-7994
▁gravity	-7995
▁greater	-7996
▁greener	-7997
▁grunted	-7998
▁handful	-7999
569	-8000
AdI	-8001
AoO	-8002
Buy	-8003
EgX	-8004
FZy	-8005
RzK	-8006
WHI	-8007
Wcd	-8008
Wyq	-8009
YWH	-8010
bJD	-8011
cGi	-8012
eAp	-8013
gXx	-8014
hZL	-8015
iVX	-8016
mmC	-8017
pVC	-8018
qIw	-8019
qfs	-8020
2500	-8021
89'.	-8022
DUqo	-8023
This	-8024
WWHI	-8025
bolt	-8026
dolf	-8027
eFyu	-8028
mrwl	-8029
vinQ	-8030
▁18,	-8031
▁35,	-8032
▁Obi	-8033
▁RUN	-8034
▁gyr	-8035
Bloop	-8036
WcdGf	-8037
WyqPW	-8038
arbor	-8039
iVXDc	-8040
ineHR	-8041
lypse	-8042
omEgX	-8043
▁barb	-8044
▁crib	-8045
▁drew	-8046
▁gAoO	-8047
▁garg	-8048
▁halt	-8049
▁lump	-8050
▁tAdI	-8051
▁tale	-8052
RbWWHI	-8053
YWHERE	-8054
qIwChI	-8055
ribute	-8056
▁1-800	-8057
▁Adolf	-8058
▁Evoke	-8059
▁bells	-8060
▁grape	-8061
▁hazed	-8062
▁queue	-8063
▁shale	-8064
▁waxed	-8065
YWineHR	-8066
nRbWWHI	-8067
▁**1001	-8068
▁**2500	-8069
▁1-800-	-8070
▁13,000	-8071
▁Fluids	-8072
▁Golden	-8073
▁Harbor	-8074
▁Horaic	-8075
▁Obiwan	-8076
▁QQniXs	-8077
▁bigger	-8078
▁burger	-8079
▁corpse	-8080
▁lurked	-8081
▁madman	-8082
▁models	-8083
▁screwd	-8084
▁warned	-8085
fJwomEgX	-8086
mrwlAYkF	-8087
ocalypse	-8088
▁Beijing	-8089
▁bigotry	-8090
▁causing	-8091
▁gargant	-8092
▁gyrated	-8093
▁handing	-8094
▁happens	-8095
▁harmony	-8096
▁hearing	-8097
▁helping	-8098
▁highway	-8099
iRZ	-8100
▁WHY	-8101
▁Batu	-8102
▁odor	-8103
▁Daily	-8104
▁Maint	-8105
▁Nicar	-8106
▁Piece	-8107
▁Snake	-8108
▁Upper	-8109
▁aimed	-8110
▁cases	-8111
▁faint	-8112
▁ghost	-8113
▁hosts	-8114
▁hurry	-8115
▁moral	-8116
▁mosqu	-8117
▁piece	-8118
▁risky	-8119
▁veloc	-8120
▁vivid	-8121
▁weeks	-8122
JqLiiRZ	-8123
fucksia	-8124
icipate	-8125
ividual	-8126
▁Anyway	-8127
▁Babies	-8128
▁Embers	-8129
▁Gandhi	-8130
▁Strain	-8131
▁affair	-8132
▁ashore	-8133
▁aspect	-8134
▁awoken	-8135
▁babies	-8136
▁chases	-8137
▁divine	-8138
▁ensure	-8139
▁globes	-8140
▁hurled	-8141
▁mosaic	-8142
▁poison	-8143
▁rising	-8144
▁rumble	-8145
▁sewing	-8146
▁sexual	-8147
▁sleeve	-8148
▁spoken	-8149
▁storms	-8150
▁sugary	-8151
▁velvet	-8152
▁Bathing	-8153
▁Crystal	-8154
▁Nicarag	-8155
▁Repopul	-8156
▁Spilled	-8157
▁Strange	-8158
▁bastard	-8159
▁bruised	-8160
▁bruises	-8161
▁crafted	-8162
▁cranked	-8163
▁debates	-8164
▁hilltop	-8165
▁hitting	-8166
▁holding	-8167
▁honking	-8168
▁honored	-8169
▁hopeful	-8170
▁housing	-8171
▁however	-8172
▁howling	-8173
▁huffing	-8174
▁hxRFjUp	-8175
▁iceberg	-8176
▁ignored	-8177
▁imagine	-8178
▁impress	-8179
▁induced	-8180
▁inferno	-8181
▁inhabit	-8182
▁insists	-8183
▁inspire	-8184
▁insured	-8185
▁jittery	-8186
▁justice	-8187
▁knocked	-8188
▁knuckle	-8189
▁layered	-8190
▁leading	-8191
▁leaving	-8192
▁letters	-8193
▁lifting	-8194
▁lighter	-8195
▁lightly	-8196
▁locking	-8197
▁looming	-8198
▁lottery	-8199
CBTWP	-8200
counts	-8201
▁2015.	-8202
▁Rocks	-8203
▁Royal	-8204
▁comfy	-8205
▁drums	-8206
▁index	-8207
▁peaks	-8208
moCBTWP	-8209
screwed	-8210
seconds	-8211
▁Afraid	-8212
▁Autumn	-8213
▁French	-8214
▁Grassy	-8215
▁Houses	-8216
▁Mister	-8217
▁afraid	-8218
▁camera	-8219
▁healer	-8220
▁muggle	-8221
▁pinged	-8222
▁pistol	-8223
▁pollen	-8224
▁sailor	-8225
▁tasked	-8226
▁thrive	-8227
▁winged	-8228
imordial	-8229
▁Alright	-8230
▁Central	-8231
▁Needing	-8232
▁Neither	-8233
▁Seconds	-8234
▁Uncount	-8235
▁Waiting	-8236
▁achieve	-8237
▁alright	-8238
▁archery	-8239
▁blinked	-8240
▁cradled	-8241
▁dappled	-8242
▁freedom	-8243
▁hideous	-8244
▁hoarded	-8245
▁involve	-8246
▁joining	-8247
▁madness	-8248
▁mankind	-8249
▁manners	-8250
▁marched	-8251
▁married	-8252
▁mascara	-8253
▁maudlin	-8254
▁meatbag	-8255
▁medical	-8256
▁meeting	-8257
▁miracle	-8258
▁missile	-8259
▁mistake	-8260
▁mocking	-8261
▁monitor	-8262
▁moonlit	-8263
▁mortals	-8264
▁mothers	-8265
▁mounted	-8266
▁muggles	-8267
▁murdred	-8268
▁natural	-8269
▁nearing	-8270
▁newborn	-8271
▁nightly	-8272
▁nonethe	-8273
▁obvious	-8274
▁officer	-8275
▁onboard	-8276
▁ordered	-8277
▁outcome	-8278
▁overrun	-8279
▁package	-8280
▁packets	-8281
▁painter	-8282
▁parched	-8283
▁passion	-8284
▁patches	-8285
▁pattern	-8286
▁peoples	-8287
▁periods	-8288
▁picking	-8289
▁pierced	-8290
▁pierces	-8291
▁pistons	-8292
▁planted	-8293
▁plastic	-8294
▁players	-8295
▁pleaded	-8296
▁pockets	-8297
▁pointed	-8298
▁precede	-8299
NJH	-8300
SFW	-8301
UCK	-8302
Vxh	-8303
fbE	-8304
jXF	-8305
zWG	-8306
BgDd	-8307
CyKg	-8308
ETgb	-8309
Fran	-8310
VmxE	-8311
WSYV	-8312
aNos	-8313
cCoy	-8314
gTbw	-8315
gVxh	-8316
▁11.	-8317
▁666	-8318
▁HSK	-8319
▁MCQ	-8320
▁MMO	-8321
▁THE	-8322
▁tdb	-8323
▁CENA	-8324
▁NSFW	-8325
BgDdqG	-8326
ETgbTq	-8327
NJHzdB	-8328
▁McCoy	-8329
▁NaNos	-8330
▁Wrong	-8331
▁cloak	-8332
▁creek	-8333
Revenge	-8334
▁swirls	-8335
andscape	-8336
gthening	-8337
landscap	-8338
▁SanFran	-8339
▁accepts	-8340
▁pressed	-8341
▁privacy	-8342
▁project	-8343
▁promise	-8344
▁provide	-8345
▁psychop	-8346
▁publish	-8347
▁puddled	-8348
▁punched	-8349
▁purring	-8350
▁puzzles	-8351
▁quailed	-8352
▁queries	-8353
▁quieter	-8354
▁quietly	-8355
▁radical	-8356
▁rainbow	-8357
▁ravaged	-8358
▁reaches	-8359
▁reacted	-8360
▁reading	-8361
▁realise	-8362
▁recline	-8363
▁reeling	-8364
▁refused	-8365
▁replace	-8366
▁resting	-8367
▁restore	-8368
▁retreat	-8369
▁revenge	-8370
▁richest	-8371
▁ringing	-8372
▁rippled	-8373
▁roadway	-8374
▁roaming	-8375
▁runaway	-8376
▁rusting	-8377
▁schizop	-8378
▁science	-8379
▁screams	-8380
▁screens	-8381
▁seasons	-8382
▁seeking	-8383
▁sensing	-8384
▁serious	-8385
▁seventy	-8386
▁severed	-8387
▁shampoo	-8388
▁shields	-8389
▁shortly	-8390
▁showers	-8391
▁shunned	-8392
▁singing	-8393
▁skyward	-8394
▁slammed	-8395
▁slapped	-8396
▁slavery	-8397
▁slumped	-8398
▁smudges	-8399
OCM	-8400
QKb	-8401
eIQ	-8402
lpY	-8403
mlj	-8404
7974	-8405
CyvL	-8406
VeyT	-8407
XApW	-8408
ZlmG	-8409
bros	-8410
desk	-8411
egas	-8412
rYDS	-8413
saUm	-8414
wBqb	-8415
yGYq	-8416
zhou	-8417
▁eNW	-8418
AfZVM	-8419
FGUYm	-8420
GiJru	-8421
IPOSE	-8422
KyQkc	-8423
SMASH	-8424
VJWvc	-8425
ZCoDN	-8426
guaro	-8427
itoes	-8428
needs	-8429
ossom	-8430
pyghE	-8431
qxKHb	-8432
smith	-8433
width	-8434
yfLXf	-8435
▁433.	-8436
▁Acad	-8437
▁Dahn	-8438
▁GOOD	-8439
▁Khan	-8440
▁Lady	-8441
▁Merr	-8442
▁Self	-8443
▁frag	-8444
▁fuel	-8445
▁hjAE	-8446
▁ostr	-8447
▁qedC	-8448
▁sync	-8449
08690-	-8450
CyvLOc	-8451
gfRmiP	-8452
▁About	-8453
▁Armor	-8454
▁Vegas	-8455
▁excel	-8456
▁forks	-8457
▁habit	-8458
▁mCktK	-8459
▁mRGBJ	-8460
▁rXApW	-8461
▁semic	-8462
dAAfZVM	-8463
ilessly	-8464
ineCorp	-8465
nWRpRdD	-8466
▁creepy	-8467
▁cycles	-8468
▁parlez	-8469
qxKHbnXI	-8470
▁ADIPOSE	-8471
▁Academy	-8472
▁Merrill	-8473
▁blossom	-8474
▁saguaro	-8475
▁softens	-8476
▁someday	-8477
▁spanner	-8478
▁spewing	-8479
▁spotted	-8480
▁spotter	-8481
▁squares	-8482
▁squeeze	-8483
▁staring	-8484
▁stepped	-8485
▁stocked	-8486
▁streams	-8487
▁stretch	-8488
▁stuffed	-8489
▁subject	-8490
▁sublime	-8491
▁success	-8492
▁suffice	-8493
▁suiting	-8494
▁summary	-8495
▁summits	-8496
▁sunrise	-8497
▁survive	-8498
▁swaying	-8499
Loser	-8500
ploma	-8501
▁LOVE	-8502
▁Mesa	-8503
LSJOII	-8504
MRphVU	-8505
adonna	-8506
beanGG	-8507
hrenia	-8508
iranja	-8509
▁Carri	-8510
▁Frank	-8511
▁Gizbv	-8512
▁Memes	-8513
▁Nerds	-8514
▁Sorry	-8515
▁Sweat	-8516
▁VsEVA	-8517
▁bikes	-8518
▁categ	-8519
▁cedar	-8520
▁dregs	-8521
▁favou	-8522
▁knees	-8523
▁matte	-8524
▁mimic	-8525
▁study	-8526
▁waned	-8527
cestors	-8528
hension	-8529
▁**1500	-8530
▁Brutal	-8531
▁Futile	-8532
▁Insert	-8533
▁Regard	-8534
▁amulet	-8535
▁carbon	-8536
▁cotton	-8537
▁feeble	-8538
▁gauges	-8539
▁hoping	-8540
▁infant	-8541
▁karate	-8542
▁legend	-8543
▁mobile	-8544
▁nerves	-8545
▁nodded	-8546
▁output	-8547
▁pliant	-8548
▁poetic	-8549
▁scales	-8550
▁soothe	-8551
▁spores	-8552
▁stolen	-8553
▁tulips	-8554
MRphVUTw	-8555
▁Houston	-8556
▁Lifting	-8557
▁Officer	-8558
▁Priuses	-8559
▁Setting	-8560
▁UPVOTED	-8561
▁agendas	-8562
▁antlers	-8563
▁cobwebs	-8564
▁crimson	-8565
▁dashing	-8566
▁diploma	-8567
▁jutting	-8568
▁laughed	-8569
▁mumbled	-8570
▁pulsing	-8571
▁sweated	-8572
▁swirled	-8573
▁systems	-8574
▁tablett	-8575
▁talking	-8576
▁tallest	-8577
▁tapered	-8578
▁targets	-8579
▁tatters	-8580
▁tattoos	-8581
▁teeming	-8582
▁teenage	-8583
▁tempest	-8584
▁testing	-8585
▁thanked	-8586
▁thermon	-8587
▁thirsty	-8588
▁threats	-8589
▁tightly	-8590
▁titters	-8591
▁torment	-8592
▁torture	-8593
▁tracing	-8594
▁travels	-8595
▁treated	-8596
▁trigger	-8597
▁tripped	-8598
▁trusted	-8599
▁Midw	-8600
▁grip	-8601
BAfEIV	-8602
CcYTyV	-8603
▁Booke	-8604
▁Woods	-8605
▁bucks	-8606
▁leech	-8607
▁neuro	-8608
▁rapid	-8609
KuWaAQX	-8610
QWYyqcY	-8611
lenting	-8612
nWaAgql	-8613
pentine	-8614
▁Canada	-8615
▁Julius	-8616
▁Madden	-8617
▁Musket	-8618
▁Pacman	-8619
▁Prayer	-8620
▁Triton	-8621
▁absurd	-8622
▁appeal	-8623
▁dazzle	-8624
▁dramat	-8625
▁enamel	-8626
▁hansom	-8627
▁helmet	-8628
▁hooves	-8629
▁kicked	-8630
▁myriad	-8631
▁neatly	-8632
▁ninety	-8633
▁placid	-8634
▁praise	-8635
▁rIMaSO	-8636
▁spells	-8637
▁tampon	-8638
▁uhhhgh	-8639
▁vacant	-8640
dUjhTUaT	-8641
kerchief	-8642
▁100-300	-8643
▁Averies	-8644
▁Beanies	-8645
▁Crafted	-8646
▁Honking	-8647
▁Midwest	-8648
▁blurred	-8649
▁cicadas	-8650
▁fanatic	-8651
▁farther	-8652
▁glitter	-8653
▁loathed	-8654
▁sapling	-8655
▁satiate	-8656
▁sputter	-8657
▁studied	-8658
▁tethers	-8659
▁uncompl	-8660
▁unhappy	-8661
▁unkempt	-8662
▁upvotes	-8663
▁utopian	-8664
▁utterly	-8665
▁vehicle	-8666
▁viewers	-8667
▁viewing	-8668
▁villain	-8669
▁vintage	-8670
▁viscera	-8671
▁vomited	-8672
▁wafting	-8673
▁wanting	-8674
▁warming	-8675
▁warrior	-8676
▁washing	-8677
▁wasting	-8678
▁weeping	-8679
▁whipped	-8680
▁whistle	-8681
▁winters	-8682
▁wishful	-8683
▁worried	-8684
▁wrinkly	-8685
▁writers	-8686
▁zombies	-8687
BMDrZkefj	-8688
HldMempEH	-8689
QWYyqcYsN	-8690
Something	-8691
UUUUUUUCK	-8692
WSYVEYJji	-8693
clockwise	-8694
effectual	-8695
emplation	-8696
hDtGqnZMx	-8697
heartened	-8698
irRsZzPIr	-8699
cFQeAn	-8700
▁Crows	-8701
▁Drink	-8702
▁Jelly	-8703
▁Jolly	-8704
▁Quite	-8705
▁Susan	-8706
▁VNynp	-8707
▁VWaHx	-8708
▁dZKMv	-8709
▁harsh	-8710
▁whiff	-8711
FLZKNid	-8712
eURhpnn	-8713
unctory	-8714
▁Inthic	-8715
▁Saddam	-8716
▁Voices	-8717
▁cherry	-8718
▁debris	-8719
▁gramps	-8720
▁guilty	-8721
▁hugged	-8722
▁jersey	-8723
▁method	-8724
▁refuge	-8725
▁scoops	-8726
▁strobe	-8727
▁tucked	-8728
Complete	-8729
roidered	-8730
zKGAdpEo	-8731
▁Comcast	-8732
▁Fallout	-8733
▁Fingers	-8734
▁Hussein	-8735
▁Massive	-8736
▁Nestles	-8737
▁abusive	-8738
▁alleged	-8739
▁buddies	-8740
▁chamber	-8741
▁circled	-8742
▁college	-8743
▁crushed	-8744
▁dollars	-8745
▁emerged	-8746
▁flaccid	-8747
▁glamour	-8748
▁manuals	-8749
▁neglect	-8750
▁nervous	-8751
▁pellets	-8752
▁pungent	-8753
▁rattles	-8754
▁routine	-8755
▁simpler	-8756
▁slumber	-8757
▁wrapped	-8758
jLxEWbgZE	-8759
luAGCqZCt	-8760
onsorship	-8761
populated	-8762
▁ANYWHERE	-8763
▁Airborne	-8764
▁American	-8765
▁Atlantis	-8766
▁BbcpOKvw	-8767
▁Campfire	-8768
▁CsUsiWGD	-8769
▁Drifting	-8770
▁Essences	-8771
▁Feathers	-8772
▁Fourteen	-8773
▁Guardian	-8774
▁Hallways	-8775
▁Increase	-8776
▁Industry	-8777
▁Laughing	-8778
▁Laughter	-8779
▁Magazine	-8780
▁Millions	-8781
▁Morality	-8782
▁Northern	-8783
▁Planting	-8784
▁Pounding	-8785
▁Pressing	-8786
▁Property	-8787
▁Reaching	-8788
▁Redskins	-8789
▁Reposted	-8790
▁Saturday	-8791
▁Shanghai	-8792
▁Shiranja	-8793
▁Slipping	-8794
▁Soothing	-8795
▁Spelling	-8796
▁Stripped	-8797
▁Students	-8798
▁Swigging	-8799
▁tools	-8800
AqEPapV	-8801
HPMmCJc	-8802
MsdgHDP	-8803
QvBsmsm	-8804
▁Affirm	-8805
▁Alumni	-8806
▁Friday	-8807
▁Secret	-8808
▁attend	-8809
▁chunks	-8810
▁coaxed	-8811
▁gSJZTr	-8812
▁pieces	-8813
▁scheme	-8814
▁shifts	-8815
▁smoked	-8816
darkness	-8817
farewell	-8818
▁Bolivia	-8819
▁Cousins	-8820
▁CthoExE	-8821
▁McQueen	-8822
▁Morocco	-8823
▁Running	-8824
▁Stygian	-8825
▁Toronto	-8826
▁alchemy	-8827
▁cavalry	-8828
▁commend	-8829
▁consequ	-8830
▁cuisine	-8831
▁exalted	-8832
▁fleshed	-8833
▁hotshot	-8834
▁molotov	-8835
▁pebbles	-8836
AskReddit	-8837
HPMmCJcTX	-8838
▁Ethernet	-8839
▁Guerlain	-8840
▁Languish	-8841
▁Ranchers	-8842
▁Thanking	-8843
▁Thinking	-8844
▁Thoughts	-8845
▁Tomorrow	-8846
▁Virgilio	-8847
▁WnGsKsrr	-8848
▁YOUrself	-8849
▁abruptly	-8850
▁absorbed	-8851
▁accounts	-8852
▁accurate	-8853
▁activity	-8854
▁addition	-8855
▁adultery	-8856
▁airspace	-8857
▁allowing	-8858
▁amateurs	-8859
▁animated	-8860
▁announce	-8861
▁annoying	-8862
▁apoptose	-8863
▁apparent	-8864
▁applying	-8865
▁appropri	-8866
▁arriving	-8867
▁attended	-8868
▁avoiding	-8869
▁awaiting	-8870
▁backpack	-8871
▁balanced	-8872
▁battered	-8873
▁behavior	-8874
▁betrayed	-8875
▁biblical	-8876
▁birdsong	-8877
▁birthday	-8878
▁bisected	-8879
▁blackout	-8880
▁bleeding	-8881
▁blessing	-8882
▁branches	-8883
▁breaking	-8884
▁breathes	-8885
▁browsing	-8886
▁brushing	-8887
▁burdened	-8888
▁burnings	-8889
▁burrowed	-8890
▁bustling	-8891
▁bypassed	-8892
▁cackling	-8893
▁captured	-8894
▁careless	-8895
▁champion	-8896
▁charcoal	-8897
▁charging	-8898
▁cheering	-8899
abulary	-8900
▁cables	-8901
▁cawing	-8902
▁fabric	-8903
▁horses	-8904
▁redeem	-8905
alPbtfFf	-8906
alZXZOPx	-8907
suicides	-8908
▁Emperor	-8909
▁English	-8910
▁Holding	-8911
▁Russian	-8912
▁Stormtr	-8913
▁mundane	-8914
▁pursuit	-8915
▁rundown	-8916
▁sdlIoig	-8917
▁sulphur	-8918
▁vIBQmeW	-8919
▁vLKfFAw	-8920
▁Cruising	-8921
▁Enjoying	-8922
▁Learning	-8923
▁Patterns	-8924
▁TDZjxxIv	-8925
▁Together	-8926
▁Victoria	-8927
▁Workshop	-8928
▁adequate	-8929
▁adhesion	-8930
▁arranged	-8931
▁chillies	-8932
▁chlorine	-8933
▁claiming	-8934
▁clanking	-8935
▁cleaning	-8936
▁clenches	-8937
▁coloured	-8938
▁comedian	-8939
▁complain	-8940
▁composed	-8941
▁conclude	-8942
▁confines	-8943
▁confront	-8944
▁contains	-8945
▁contents	-8946
▁copulate	-8947
▁covering	-8948
▁crawling	-8949
▁creating	-8950
▁creators	-8951
▁creeping	-8952
▁crumbled	-8953
▁crumpled	-8954
▁crunched	-8955
▁culinary	-8956
▁curtains	-8957
▁dampness	-8958
▁decorate	-8959
▁decrease	-8960
▁defeated	-8961
▁deserted	-8962
▁detected	-8963
▁dictator	-8964
▁directed	-8965
▁directly	-8966
▁displays	-8967
▁disrupts	-8968
▁doorways	-8969
▁downtown	-8970
▁dreadful	-8971
▁drifting	-8972
▁drinking	-8973
▁driveway	-8974
▁dropping	-8975
▁drumbeat	-8976
▁dwindled	-8977
▁elements	-8978
▁elevated	-8979
▁embraced	-8980
▁embraces	-8981
▁emitting	-8982
▁engaging	-8983
▁engulfed	-8984
▁ensuring	-8985
▁entirely	-8986
▁entirety	-8987
▁entitled	-8988
▁entombed	-8989
▁entrance	-8990
▁escaping	-8991
▁everyday	-8992
▁everyway	-8993
▁examples	-8994
▁existing	-8995
▁explains	-8996
▁exponent	-8997
▁extended	-8998
▁eyesight	-8999
▁pupils	-9000
VbyPfpgc	-9001
eGMHZUri	-9002
▁fashion	-9003
▁fertile	-9004
▁harlots	-9005
▁nakedly	-9006
▁pounces	-9007
▁tobacco	-9008
▁tragedy	-9009
▁tyranny	-9010
▁zygotes	-9011
rAeFJTZfz	-9012
tkjbkySuu	-9013
udfjWZyav	-9014
▁December	-9015
▁Feedback	-9016
▁IjaIVXIp	-9017
▁citadels	-9018
▁conveyor	-9019
▁defenses	-9020
▁denizens	-9021
▁detainee	-9022
▁ellipsis	-9023
▁facility	-9024
▁failings	-9025
▁faithful	-9026
▁fearsome	-9027
▁features	-9028
▁feedback	-9029
▁fighting	-9030
▁filtered	-9031
▁finishes	-9032
▁firearms	-9033
▁firmness	-9034
▁flailing	-9035
▁flapping	-9036
▁flatmate	-9037
▁flickers	-9038
▁flourish	-9039
▁fondness	-9040
▁foothold	-9041
▁forearms	-9042
▁forehead	-9043
▁founding	-9044
▁fraction	-9045
▁furthest	-9046
▁futility	-9047
▁graceful	-9048
▁grenades	-9049
▁guarding	-9050
▁haggling	-9051
▁hallways	-9052
▁harvests	-9053
▁headache	-9054
▁headlamp	-9055
▁hellbent	-9056
▁homicide	-9057
▁horrible	-9058
▁hospital	-9059
▁identity	-9060
▁ignoring	-9061
▁illusion	-9062
▁imagined	-9063
▁immortal	-9064
▁imposing	-9065
▁inferior	-9066
▁ingested	-9067
▁injuries	-9068
▁inserted	-9069
▁installs	-9070
▁instance	-9071
▁intellig	-9072
▁intimate	-9073
▁invaders	-9074
▁involved	-9075
▁isolated	-9076
▁joyously	-9077
▁landfall	-9078
▁laughter	-9079
▁learning	-9080
▁lifespan	-9081
▁lingered	-9082
▁listened	-9083
▁listless	-9084
▁luscious	-9085
▁majestic	-9086
▁material	-9087
▁maverick	-9088
▁measured	-9089
▁merchant	-9090
▁minority	-9091
▁mirrored	-9092
▁mistaken	-9093
▁molested	-9094
▁mornings	-9095
▁mountain	-9096
▁movement	-9097
▁nYWineHR	-9098
▁navigate	-9099
FZywaOZLq	-9100
MWaZOXppT	-9101
▁Carriers	-9102
▁Franklin	-9103
▁Maintain	-9104
▁deadbolt	-9105
▁neighbor	-9106
▁nightday	-9107
▁nostrils	-9108
▁nurtured	-9109
▁oblivion	-9110
▁occupied	-9111
▁opponent	-9112
▁outhouse	-9113
▁outlines	-9114
▁overcame	-9115
▁packages	-9116
▁parallel	-9117
▁passport	-9118
▁pathetic	-9119
▁pavement	-9120
▁peppered	-9121
▁perfumed	-9122
▁pheasant	-9123
▁physical	-9124
▁piercing	-9125
▁planning	-9126
▁pleasant	-9127
▁pleasure	-9128
▁plugging	-9129
▁position	-9130
▁practice	-9131
▁precious	-9132
▁premises	-9133
▁presence	-9134
▁pressing	-9135
▁prevents	-9136
▁prickles	-9137
▁problems	-9138
▁promises	-9139
▁property	-9140
▁punished	-9141
▁purchase	-9142
▁quenched	-9143
▁questing	-9144
▁question	-9145
▁reaching	-9146
▁rearview	-9147
▁receding	-9148
▁recesses	-9149
▁reckless	-9150
▁reducing	-9151
▁reflects	-9152
▁rejected	-9153
▁remained	-9154
▁reminded	-9155
▁repented	-9156
▁research	-9157
▁restored	-9158
▁restroom	-9159
▁retained	-9160
▁retroact	-9161
▁reverber	-9162
▁ritually	-9163
▁romantic	-9164
▁rumbling	-9165
▁ruminate	-9166
▁rustling	-9167
▁ruthless	-9168
▁sandwich	-9169
▁scariest	-9170
▁scatters	-9171
▁scenario	-9172
▁schedule	-9173
▁scramble	-9174
▁scribble	-9175
▁scurries	-9176
▁seething	-9177
▁selfless	-9178
▁selfsame	-9179
▁sentient	-9180
▁sentries	-9181
▁serenity	-9182
▁services	-9183
▁shielded	-9184
▁shivered	-9185
▁shoddily	-9186
▁shooting	-9187
▁shootout	-9188
▁shortest	-9189
▁shoulder	-9190
▁shouting	-9191
▁sickness	-9192
▁sideways	-9193
▁signaled	-9194
▁silience	-9195
▁singular	-9196
▁sinister	-9197
▁slightly	-9198
▁slipping	-9199
▁snuggles	-9200
▁solemnly	-9201
▁solution	-9202
▁someones	-9203
▁sparsely	-9204
▁speakers	-9205
▁spectral	-9206
▁spelling	-9207
▁spending	-9208
▁spinning	-9209
▁splinter	-9210
▁squeezed	-9211
▁squished	-9212
▁staggers	-9213
▁stalling	-9214
▁starving	-9215
▁steering	-9216
▁stepping	-9217
▁stopping	-9218
▁streched	-9219
▁stripped	-9220
▁struggle	-9221
▁stuffing	-9222
▁suffered	-9223
▁suicidal	-9224
▁supplies	-9225
▁supports	-9226
▁supposed	-9227
▁suprises	-9228
▁surnames	-9229
▁surveyed	-9230
▁survivor	-9231
▁swallows	-9232
▁sweeping	-9233
▁swelling	-9234
▁sympathy	-9235
▁symphony	-9236
▁symptoms	-9237
▁tattooed	-9238
▁teaching	-9239
▁tendrils	-9240
▁thirteen	-9241
▁thriving	-9242
▁tickling	-9243
▁timeless	-9244
▁tireless	-9245
▁tomorrow	-9246
▁torments	-9247
▁touching	-9248
▁tourists	-9249
▁transfer	-9250
▁trenches	-9251
▁trickled	-9252
▁tropical	-9253
▁troubles	-9254
▁trousers	-9255
▁twilight	-9256
▁twirling	-9257
▁ultimate	-9258
▁unbeliev	-9259
▁uncaring	-9260
▁underest	-9261
▁unending	-9262
▁unlikely	-9263
▁unmarked	-9264
▁unmasked	-9265
▁unpreced	-9266
▁unwanted	-9267
▁unworthy	-9268
▁uploaded	-9269
▁upstream	-9270
▁vanquish	-9271
▁versions	-9272
▁vfwLsBiY	-9273
▁visceral	-9274
▁walkways	-9275
▁wantonly	-9276
▁watchers	-9277
▁weakness	-9278
▁welcomes	-9279
▁whatever	-9280
▁whenever	-9281
▁wielding	-9282
▁wondered	-9283
▁worrying	-9284
▁wrecking	-9285
▁wrinkled	-9286
▁writhing	-9287
▁yearning	-9288
BAfEIVplVz	-9289
BCPbebgkDD	-9290
Fanfiction	-9291
JCvrenckDQ	-9292
KZBBQGDxTE	-9293
TCBODCXMMB	-9294
cognisable	-9295
conclusion	-9296
landscapes	-9297
population	-9298
reflection	-9299
▁Airbender	-9300
▁Asteriods	-9301
▁Astronaut	-9302
▁Beginning	-9303
▁Blueberry	-9304
▁Centuries	-9305
▁Chocolate	-9306
▁Concordia	-9307
▁Construct	-9308
▁Dangerous	-9309
▁Defenders	-9310
▁Deserving	-9311
▁Directors	-9312
▁Everybody	-9313
▁Everyones	-9314
▁Fireballs	-9315
▁Footsteps	-9316
▁Forgotten	-9317
▁Guangzhou	-9318
▁Indicates	-9319
▁Launching	-9320
▁Literally	-9321
▁Manhattan	-9322
▁Meanwhile	-9323
▁Neverland	-9324
▁Nicaragua	-9325
▁Operating	-9326
▁Opponents	-9327
▁Portraits	-9328
▁Preparing	-9329
▁Receiving	-9330
▁Residents	-9331
▁Roosevelt	-9332
▁Somewhere	-9333
▁Springing	-9334
▁Starburst	-9335
▁Styrofoam	-9336
▁Treasured	-9337
▁Untouched	-9338
▁Witnessed	-9339
▁Wondering	-9340
▁abilities	-9341
▁admirable	-9342
▁adulthood	-9343
▁amazement	-9344
▁ambulance	-9345
▁amusement	-9346
▁ancestors	-9347
▁apartment	-9348
▁apoptosis	-9349
▁appearing	-9350
▁appointed	-9351
▁assembled	-9352
▁astronaut	-9353
▁attribute	-9354
▁attrition	-9355
▁ballerina	-9356
▁beachhead	-9357
▁beckoning	-9358
▁befriends	-9359
▁beginning	-9360
▁betrayals	-9361
▁blackness	-9362
▁briefcase	-9363
▁buildings	-9364
▁calloused	-9365
▁cancerous	-9366
▁canyoning	-9367
▁cathedral	-9368
▁challenge	-9369
▁chemicals	-9370
▁chemistry	-9371
▁childhood	-9372
▁civilians	-9373
▁clockwise	-9374
▁cockroach	-9375
▁commanded	-9376
▁communism	-9377
▁companies	-9378
▁companion	-9379
▁concealed	-9380
▁confident	-9381
▁confusing	-9382
▁confusion	-9383
▁conqueror	-9384
▁continues	-9385
▁corporeal	-9386
▁courtyard	-9387
▁crackling	-9388
▁crescendo	-9389
▁criminals	-9390
▁crossbows	-9391
▁crossroad	-9392
▁crunching	-9393
▁curiously	-9394
▁daffodils	-9395
▁darkening	-9396
▁decisions	-9397
▁declaring	-9398
▁defective	-9399
▁delicious	-9400
▁democracy	-9401
▁depressed	-9402
▁desperate	-9403
▁destroyed	-9404
▁destroyer	-9405
▁detailing	-9406
▁directors	-9407
▁disasters	-9408
▁disbelief	-9409
▁discarded	-9410
▁disciples	-9411
▁discovers	-9412
▁discovery	-9413
▁discworld	-9414
▁displaced	-9415
▁dissected	-9416
▁dissuaded	-9417
▁distances	-9418
▁dominance	-9419
▁drinkable	-9420
▁drunkenly	-9421
▁dumpsters	-9422
▁dystopian	-9423
▁elephants	-9424
▁embodying	-9425
▁emergence	-9426
▁employees	-9427
▁emptiness	-9428
▁encourage	-9429
▁establish	-9430
▁everybody	-9431
▁executive	-9432
▁exhausted	-9433
▁existence	-9434
▁exploding	-9435
▁expresses	-9436
▁extracted	-9437
▁facsimile	-9438
▁fantasies	-9439
▁favourite	-9440
▁fireflies	-9441
▁flavorful	-9442
▁flickered	-9443
▁fluttered	-9444
▁footsteps	-9445
▁forgiving	-9446
▁fortified	-9447
▁fountains	-9448
▁fragments	-9449
▁frictions	-9450
▁gathering	-9451
▁gauntlets	-9452
▁genitalia	-9453
▁gleefully	-9454
▁graduated	-9455
▁gunpowder	-9456
▁habitable	-9457
▁happening	-9458
▁hilarious	-9459
▁hospitals	-9460
▁household	-9461
▁hypocrite	-9462
▁identical	-9463
▁immersing	-9464
▁immersion	-9465
▁impressed	-9466
▁incapable	-9467
▁including	-9468
▁initially	-9469
▁instantly	-9470
▁integrate	-9471
▁intensely	-9472
▁intensity	-9473
▁intricate	-9474
▁intruders	-9475
▁iteration	-9476
▁juiciness	-9477
▁kinslayer	-9478
▁kuAmrPjPr	-9479
▁landscape	-9480
▁limestone	-9481
▁listening	-9482
▁literally	-9483
▁livestock	-9484
▁makeshift	-9485
▁marvelous	-9486
▁masculine	-9487
▁massacred	-9488
▁maximally	-9489
▁mentioned	-9490
▁metronome	-9491
▁microwave	-9492
▁miniature	-9493
▁molecules	-9494
▁monologue	-9495
▁monuments	-9496
▁mortified	-9497
▁movements	-9498
▁multitude	-9499
▁mushrooms	-9500
▁mysticism	-9501
▁narrative	-9502
▁narritive	-9503
▁newspaper	-9504
▁oEVXrgTLg	-9505
▁oblivious	-9506
▁organisms	-9507
▁overboard	-9508
▁parachute	-9509
▁partially	-9510
▁penetrate	-9511
▁permeated	-9512
▁petrified	-9513
▁playfully	-9514
▁pollution	-9515
▁populated	-9516
▁possessed	-9517
▁potential	-9518
▁powerless	-9519
▁predators	-9520
▁pretended	-9521
▁prevalent	-9522
▁privilege	-9523
▁procedure	-9524
▁protector	-9525
▁protested	-9526
▁psychotic	-9527
▁purgatory	-9528
▁qVSIgheAg	-9529
▁rainbowed	-9530
▁raindrops	-9531
▁realities	-9532
▁realspace	-9533
▁receiving	-9534
▁recipient	-9535
▁referring	-9536
▁refreshed	-9537
▁rejection	-9538
▁relatives	-9539
▁reminding	-9540
▁replacing	-9541
▁resonated	-9542
▁responded	-9543
▁responses	-9544
▁resurface	-9545
▁returning	-9546
▁reversing	-9547
▁roommates	-9548
▁saltpeter	-9549
▁satisfied	-9550
▁savouring	-9551
▁scientist	-9552
▁searching	-9553
▁seashells	-9554
▁selecting	-9555
▁semicolon	-9556
▁sensation	-9557
▁sentinels	-9558
▁seventeen	-9559
▁shepherds	-9560
▁shoulders	-9561
▁signature	-9562
▁simmering	-9563
▁skittered	-9564
▁slaughter	-9565
▁soldiered	-9566
▁spotlight	-9567
▁squinting	-9568
▁stalemate	-9569
▁statement	-9570
▁stationed	-9571
▁straining	-9572
▁strangely	-9573
▁streaking	-9574
▁stretched	-9575
▁stretches	-9576
▁struggled	-9577
▁substance	-9578
▁succeeded	-9579
▁suddently	-9580
▁suffering	-9581
▁suggested	-9582
▁surrounds	-9583
▁suspended	-9584
▁sustained	-9585
▁sweetness	-9586
▁symbiotic	-9587
▁synthetic	-9588
▁temporary	-9589
▁tenements	-9590
▁tentative	-9591
▁testament	-9592
▁testicles	-9593
▁thirsting	-9594
▁torturous	-9595
▁transmute	-9596
▁transpire	-9597
▁undermine	-9598
▁underwear	-9599
▁unnatural	-9600
▁unscrewed	-9601
▁vehicular	-9602
▁viciously	-9603
▁violently	-9604
▁wandering	-9605
▁wondering	-9606
▁yesterday	-9607
BMDrZkefjrV	-9608
FLZKNidvinQ	-9609
IEOQzkqMBKz	-9610
ITFXvHjoutu	-9611
astronaught	-9612
gfRmiPZCoDN	-9613
heSObnpyghE	-9614
inctiveness	-9615
mercialized	-9616
yLNXiBiCIFo	-9617
▁Applicants	-9618
▁Artificial	-9619
▁Attempting	-9620
▁Belladonna	-9621
▁Bookending	-9622
▁Conclusion	-9623
▁Delightful	-9624
▁Distracted	-9625
▁FUUUUUUUCK	-9626
▁Flickering	-9627
▁Government	-9628
▁Heisenberg	-9629
▁Jawbreaker	-9630
▁Musketeers	-9631
▁Optionally	-9632
▁Possessing	-9633
▁Proponents	-9634
▁Regardless	-9635
▁Resistance	-9636
▁Restarting	-9637
▁Revelation	-9638
▁Serpentine	-9639
▁Snickering	-9640
▁Stretching	-9641
▁Surrounded	-9642
▁Throughout	-9643
▁Washington	-9644
▁absolutely	-9645
▁acceptable	-9646
▁accidental	-9647
▁acquiesced	-9648
▁adjectives	-9649
▁adrenaline	-9650
▁afterwards	-9651
▁aggression	-9652
▁apocalypse	-9653
▁apologists	-9654
▁applauding	-9655
▁approaches	-9656
▁assimilate	-9657
▁atmosphere	-9658
▁attraction	-9659
▁barbarians	-9660
▁beginnings	-9661
▁binoculars	-9662
▁biological	-9663
▁blacksmith	-9664
▁blanketing	-9665
▁blindingly	-9666
▁calamities	-9667
▁calculated	-9668
▁calculates	-9669
▁casualties	-9670
▁categories	-9671
▁centimetre	-9672
▁chattering	-9673
▁collection	-9674
▁comprehend	-9675
▁concoction	-9676
▁conducting	-9677
▁connection	-9678
▁continents	-9679
▁continuing	-9680
▁continuous	-9681
▁contrasted	-9682
▁cornfields	-9683
▁corrugated	-9684
▁creativity	-9685
▁crucifixes	-9686
▁debauchery	-9687
▁defecation	-9688
▁deliveries	-9689
▁depressing	-9690
▁describing	-9691
▁desolation	-9692
▁difference	-9693
▁diminishes	-9694
▁discussing	-9695
▁divination	-9696
▁domination	-9697
▁dreamwidth	-9698
▁electrical	-9699
▁electronic	-9700
▁eliminated	-9701
▁employment	-9702
▁evacuation	-9703
▁evaporated	-9704
▁exhaustion	-9705
▁experience	-9706
▁explaining	-9707
▁explosives	-9708
▁extraneous	-9709
▁flawlessly	-9710
▁footprints	-9711
▁forefinger	-9712
▁foundering	-9713
▁fraternity	-9714
▁fulfilling	-9715
▁functional	-9716
▁furthering	-9717
▁gargantuan	-9718
▁generating	-9719
▁glistening	-9720
▁gobsmacked	-9721
▁graduation	-9722
▁grandchild	-9723
▁gravitated	-9724
▁greenhouse	-9725
▁hesitation	-9726
▁humiliated	-9727
▁incredible	-9728
▁individual	-9729
▁inequities	-9730
▁injustices	-9731
▁inteligent	-9732
▁interviews	-9733
▁intimately	-9734
▁invincible	-9735
▁leadership	-9736
▁lightening	-9737
▁loneliness	-9738
▁manipulate	-9739
▁masquerade	-9740
▁mechanized	-9741
▁mentioning	-9742
▁mercifully	-9743
▁misapplied	-9744
▁monotonous	-9745
▁mosquitoes	-9746
▁motivating	-9747
▁nauseating	-9748
▁neighbours	-9749
▁noticeable	-9750
▁occasional	-9751
▁ostracized	-9752
▁otherspace	-9753
▁outrageous	-9754
▁paragraphs	-9755
▁perfection	-9756
▁personally	-9757
▁perversely	-9758
▁petrolkind	-9759
▁playground	-9760
▁practicing	-9761
▁primordial	-9762
▁processors	-9763
▁productive	-9764
▁prosecutor	-9765
▁protecting	-9766
▁punchlines	-9767
▁reassembly	-9768
▁rebellious	-9769
▁receptacle	-9770
▁redemption	-9771
▁reflecting	-9772
▁rehearsals	-9773
▁repertoire	-9774
▁repetition	-9775
▁resistance	-9776
▁responding	-9777
▁ridiculous	-9778
▁scientific	-9779
▁scientists	-9780
▁sequential	-9781
▁shimmering	-9782
▁slithering	-9783
▁sputtering	-9784
▁stepfather	-9785
▁stretching	-9786
▁striations	-9787
▁structures	-9788
▁struggling	-9789
▁submission	-9790
▁submitting	-9791
▁suggestion	-9792
▁supervisor	-9793
▁suspicious	-9794
▁tablecloth	-9795
▁techniques	-9796
▁terrorists	-9797
▁themselves	-9798
▁thundering	-9799
▁tightening	-9800
▁tragically	-9801
▁transforms	-9802
▁tremendous	-9803
▁unanswered	-9804
▁underneath	-9805
▁unfamiliar	-9806
▁unforeseen	-9807
▁vanquished	-9808
▁ventilator	-9809
▁victorious	-9810
▁visualized	-9811
▁vocabulary	-9812
▁wastelands	-9813
▁watchtower	-9814
▁windowsill	-9815
▁windscreen	-9816
▁worshipers	-9817
▁worshipped	-9818
▁wristwatch	-9819
01843908690-	-9820
RIJzChIiibSe	-9821
WVclLKVUIsrX	-9822
cFQeAnXviqsY	-9823
jmcQHgAeCivb	-9824
nWRpRdDLQVlW	-9825
▁Affirmative	-9826
▁Assimilated	-9827
▁Butterflies	-9828
▁Corporeally	-9829
▁Discovering	-9830
▁ELVtrCsVUbr	-9831
▁Fortunately	-9832
▁ImagineCorp	-9833
▁Preliminary	-9834
▁Publishable	-9835
▁Surprisists	-9836
▁Uncountably	-9837
▁ZdDhAoxfAiP	-9838
▁accompanied	-9839
▁acknowledge	-9840
▁assassinate	-9841
▁astronaught	-9842
▁battleships	-9843
▁beautifully	-9844
▁beneficiary	-9845
▁billionaire	-9846
▁capitalized	-9847
▁catastrophe	-9848
▁cheerleader	-9849
▁collections	-9850
▁communicate	-9851
▁compressing	-9852
▁concussions	-9853
▁connections	-9854
▁consumption	-9855
▁conversatio	-9856
▁countryside	-9857
▁criticizing	-9858
▁deceptively	-9859
▁declaration	-9860
▁dehydration	-9861
▁deliciously	-9862
▁destruction	-9863
▁differently	-9864
▁dimensional	-9865
▁disassemble	-9866
▁disbelieved	-9867
▁discovering	-9868
▁documentary	-9869
▁dragonflies	-9870
▁electricity	-9871
▁embarrassed	-9872
▁embroidered	-9873
▁eradication	-9874
▁established	-9875
▁explanation	-9876
▁extroverted	-9877
▁fingernails	-9878
▁fingerprint	-9879
▁floorboards	-9880
▁forefathers	-9881
▁frantically	-9882
▁generations	-9883
▁hypothermia	-9884
▁imagination	-9885
▁immediately	-9886
▁importantly	-9887
▁incorporate	-9888
▁inebriation	-9889
▁ineffectual	-9890
▁inhabitants	-9891
▁innevitable	-9892
▁inspiration	-9893
▁instruction	-9894
▁instruments	-9895
▁luminescent	-9896
▁maintaining	-9897
▁maintenance	-9898
▁marvelously	-9899
▁mercilessly	-9900
▁nonetheless	-9901
▁nothingness	-9902
▁opportunity	-9903
▁outnumbered	-9904
▁participate	-9905
▁perfunctory	-9906
▁perspective	-9907
▁possessions	-9908
▁presentable	-9909
▁prestigious	-9910
▁pretentious	-9911
▁programming	-9912
▁psychopaths	-9913
▁punctuation	-9914
▁qedCTcfisZc	-9915
▁realization	-9916
▁recognition	-9917
▁refreshment	-9918
▁regulations	-9919
▁represented	-9920
▁scholarship	-9921
▁screwdriver	-9922
▁selfishness	-9923
▁seventeenth	-9924
▁soundlessly	-9925
▁specialized	-9926
▁speculation	-9927
▁sponsorship	-9928
▁spreadsheet	-9929
▁submissions	-9930
▁subtraction	-9931
▁surrendered	-9932
▁syncopation	-9933
▁termination	-9934
▁translucent	-9935
▁underground	-9936
▁unexplained	-9937
▁unforgiving	-9938
▁unfulfilled	-9939
▁unnecessary	-9940
▁unrelenting	-9941
MojRUyAqEPapV	-9942
lessnesswhile	-9943
tkjbkySuuCyKg	-9944
zymXtIsLSJOII	-9945
▁Anticipation	-9946
▁Christianity	-9947
▁Disheartened	-9948
▁Nevertheless	-9949
▁Repopulation	-9950
▁Unrecognized	-9951
▁VWaHxDSivGXG	-9952
▁accidentally	-9953
▁accomplished	-9954
▁appreciation	-9955
▁apprehension	-9956
▁appurtenance	-9957
▁calculations	-9958
▁celebrations	-9959
▁consequences	-9960
▁considerably	-9961
▁continuation	-9962
▁conversation	-9963
▁disappearing	-9964
▁dramatically	-9965
▁embarrassing	-9966
▁evolutionary	-9967
▁experimental	-9968
▁handkerchief	-9969
▁happenstance	-9970
▁headquarters	-9971
▁highlighting	-9972
▁illustration	-9973
▁improvements	-9974
▁instructions	-9975
▁intermediary	-9976
▁intertwining	-9977
▁kindergarten	-9978
▁manslaughter	-9979
▁mechanically	-9980
▁mysteriously	-9981
▁occasionally	-9982
▁otherworldly	-9983
▁preposterous	-9984
▁preservation	-9985
▁recklessness	-9986
▁reenactments	-9987
▁representing	-9988
▁reverberated	-9989
▁satisfactory	-9990
▁unbelievable	-9991
▁unimaginably	-9992
▁unmistakable	-9993
▁velociraptor	-9994
▁zwDnIuGrsIcL	-9995
GiJruHldMempEH	-9996
JqLiiRZIJmbePw	-9997
imOOVSBZCwaUkl	-9998
kxiJTCepCyvLOc	-9999
luAGCqZCtYhjcW	-10000
▁BbcpOKvwSHirA	-10001
▁Contemplation	-10002
▁FINiBmYYvMJsu	-10003
▁Manufacturers	-10004
▁Stormtroopers	-10005
▁Understanding	-10006
▁Unfortunately	-10007
▁appropriately	-10008
▁approximately	-10009
▁choreographed	-10010
▁cjTcpJDEDzkRm	-10011
▁correspondent	-10012
▁exponentially	-10013
▁gSJZTrVnmiLMX	-10014
▁grandchildren	-10015
▁inappropriate	-10016
▁incrementally	-10017
▁intelligences	-10018
▁manufacturers	-10019
▁motherfucking	-10020
▁opportunities	-10021
▁overpopulated	-10022
▁relationships	-10023
▁retroactively	-10024
▁revolutionary	-10025
▁schizophrenia	-10026
▁strengthening	-10027
▁technological	-10028
▁thermonuclear	-10029
▁threateningly	-10030
▁uncomplicated	-10031
▁unprecedented	-10032
FGUYmJCvrenckDQ	-10033
UbdLtvtalPbtfFf	-10034
rAeFJTZfznXczUp	-10035
▁Overpopulation	-10036
▁choreographing	-10037
▁commercialized	-10038
▁hxRFjUpKxWFjOG	-10039
▁investigations	-10040
▁odcHTCBODCXMMB	-10041
▁responsibility	-10042
▁simultaneously	-10043
▁underestimated	-10044
▁unrecognisable	-10045
qdFdsvPudfjWZyav	-10046
▁accomplishments	-10047
▁distinctiveness	-10048
*2	-10049
,0	-10050
-0	-10051
0,	-10052
1-	-10053
10	-10054
16	-10055
19	-10056
2,	-10057
20	-10058
36	-10059
4-	-10060
5.	-10061
56	-10062
62	-10063
76	-10064
9'	-10065
99	-10066
:.	-10067
AG	-10068
AP	-10069
Ai	-10070
Al	-10071
As	-10072
At	-10073
Ax	-10074
BB	-10075
BG	-10076
BP	-10077
Bp	-10078
Br	-10079
CP	-10080
CT	-10081
CW	-10082
Cr	-10083
Ct	-10084
DE	-10085
DI	-10086
Da	-10087
De	-10088
Di	-10089
Dx	-10090
Ea	-10091
Ed	-10092
Em	-10093
Er	-10094
Ev	-10095
FA	-10096
FF	-10097
FG	-10098
FL	-10099
--	-10100
29	-10101
Au	-10102
Bo	-10103
Ca	-10104
Ce	-10105
Cl	-10106
DC	-10107
FR	-10108
FX	-10109
FZ	-10110
Fa	-10111
Fe	-10112
Fu	-10113
GA	-10114
GC	-10115
GI	-10116
GT	-10117
Gl	-10118
Go	-10119
HW	-10120
He	-10121
Hi	-10122
Ho	-10123
Hy	-10124
IH	-10125
If	-10126
Ij	-10127
In	-10128
JC	-10129
JT	-10130
Js	-10131
Ju	-10132
KF	-10133
Ke	-10134
Kv	-10135
LG	-10136
Lf	-10137
Lo	-10138
Lu	-10139
MH	-10140
MX	-10141
Mi	-10142
My	-10143
NS	-10144
NY	-10145
Na	-10146
No	-10147
OH	-10148
OI	-10149
ON	-10150
OZ	-10151
Ob	-10152
Of	-10153
Oh	-10154
Op	-10155
Or	-10156
Oy	-10157
PT	-10158
PU	-10159
Pa	-10160
Pb	-10161
Pe	-10162
Pf	-10163
Pg	-10164
Pi	-10165
Pk	-10166
Pl	-10167
Pu	-10168
QG	-10169
Qm	-10170
RF	-10171
Rd	-10172
Ru	-10173
SE	-10174
SG	-10175
SI	-10176
SY	-10177
Sa	-10178
Sh	-10179
So	-10180
St	-10181
TT	-10182
TU	-10183
TV	-10184
Te	-10185
Ti	-10186
To	-10187
UI	-10188
UM	-10189
Un	-10190
Uw	-10191
VA	-10192
VE	-10193
Va	-10194
Ve	-10195
Vi	-10196
WL	-10197
WU	-10198
WW	-10199
*1	-10200
14	-10201
30	-10202
7,	-10203
AA	-10204
AI	-10205
Aa	-10206
Ar	-10207
Be	-10208
CE	-10209
EL	-10210
EN	-10211
Gr	-10212
Im	-10213
Me	-10214
Mm	-10215
Od	-10216
On	-10217
Ro	-10218
Si	-10219
We	-10220
Wh	-10221
Wi	-10222
Wo	-10223
Wr	-10224
XL	-10225
XN	-10226
YO	-10227
Ye	-10228
Yk	-10229
Yo	-10230
Yv	-10231
ZA	-10232
ZB	-10233
ZO	-10234
ZU	-10235
Zg	-10236
aL	-10237
ae	-10238
af	-10239
ax	-10240
bT	-10241
bW	-10242
ba	-10243
bb	-10244
bd	-10245
bh	-10246
bj	-10247
bk	-10248
bu	-10249
by	-10250
cF	-10251
cL	-10252
cT	-10253
ca	-10254
cq	-10255
cr	-10256
cu	-10257
dG	-10258
dL	-10259
da	-10260
dc	-10261
di	-10262
dr	-10263
dt	-10264
du	-10265
dv	-10266
eA	-10267
eH	-10268
eP	-10269
eS	-10270
eX	-10271
ea	-10272
ec	-10273
eh	-10274
ei	-10275
eo	-10276
eu	-10277
ev	-10278
ez	-10279
fR	-10280
fa	-10281
fi	-10282
fu	-10283
fy	-10284
gP	-10285
gS	-10286
ga	-10287
gd	-10288
gi	-10289
gk	-10290
gl	-10291
gm	-10292
gq	-10293
hE	-10294
hV	-10295
hd	-10296
hg	-10297
hm	-10298
hr	-10299
03	-10300
12	-10301
18	-10302
35	-10303
64	-10304
Av	-10305
CO	-10306
Co	-10307
DL	-10308
Du	-10309
Dw	-10310
EU	-10311
Es	-10312
Fd	-10313
Fi	-10314
Ha	-10315
JO	-10316
Je	-10317
MC	-10318
OL	-10319
OM	-10320
PO	-10321
Sw	-10322
TO	-10323
TR	-10324
Tb	-10325
VR	-10326
Yy	-10327
dw	-10328
hJ	-10329
hs	-10330
ht	-10331
hu	-10332
iC	-10333
ik	-10334
iq	-10335
iw	-10336
jR	-10337
jT	-10338
je	-10339
ji	-10340
jo	-10341
ju	-10342
kL	-10343
kO	-10344
kd	-10345
kf	-10346
ki	-10347
kp	-10348
kw	-10349
lS	-10350
lU	-10351
la	-10352
lk	-10353
lm	-10354
lq	-10355
ls	-10356
lu	-10357
lw	-10358
lz	-10359
mE	-10360
ma	-10361
mb	-10362
mf	-10363
mm	-10364
mn	-10365
mp	-10366
mt	-10367
mu	-10368
mw	-10369
mx	-10370
nA	-10371
nD	-10372
nI	-10373
ni	-10374
nk	-10375
nl	-10376
nm	-10377
np	-10378
nq	-10379
nu	-10380
nv	-10381
oC	-10382
oD	-10383
oG	-10384
oM	-10385
oa	-10386
oe	-10387
of	-10388
oi	-10389
ok	-10390
ox	-10391
oz	-10392
pV	-10393
pa	-10394
pi	-10395
po	-10396
pu	-10397
pv	-10398
qZ	-10399
AN	-10400
EW	-10401
La	-10402
Le	-10403
Ly	-10404
ME	-10405
Mr	-10406
Mu	-10407
ND	-10408
NO	-10409
Ne	-10410
OR	-10411
PI	-10412
PL	-10413
Po	-10414
Sc	-10415
Su	-10416
Um	-10417
VX	-10418
Wb	-10419
Wz	-10420
ao	-10421
bS	-10422
eb	-10423
eq	-10424
hb	-10425
kg	-10426
lc	-10427
ml	-10428
nR	-10429
nh	-10430
oh	-10431
qE	-10432
qe	-10433
rA	-10434
rC	-10435
rI	-10436
rZ	-10437
rb	-10438
rc	-10439
rf	-10440
rg	-10441
rh	-10442
rk	-10443
rl	-10444
rm	-10445
rn	-10446
rp	-10447
rt	-10448
rv	-10449
rw	-10450
sB	-10451
sK	-10452
sV	-10453
sW	-10454
sY	-10455
sa	-10456
sb	-10457
sc	-10458
si	-10459
sn	-10460
sw	-10461
sz	-10462
tC	-10463
tO	-10464
tQ	-10465
tY	-10466
ta	-10467
tb	-10468
tc	-10469
td	-10470
tf	-10471
ti	-10472
tl	-10473
tn	-10474
tx	-10475
uC	-10476
uU	-10477
uW	-10478
ub	-10479
ui	-10480
uo	-10481
uy	-10482
vD	-10483
vE	-10484
vQ	-10485
va	-10486
vi	-10487
vo	-10488
vs	-10489
vy	-10490
wO	-10491
wa	-10492
wh	-10493
wi	-10494
wk	-10495
wo	-10496
wr	-10497
ws	-10498
xS	-10499
*3	-10500
*6	-10501
*9	-10502
-8	-10503
1,	-10504
11	-10505
13	-10506
2!	-10507
21	-10508
40	-10509
43	-10510
6.	-10511
60	-10512
8,	-10513
80	-10514
AR	-10515
Ii	-10516
Iw	-10517
Jz	-10518
Lq	-10519
Ri	-10520
TD	-10521
TL	-10522
Uz	-10523
VI	-10524
Zj	-10525
bm	-10526
dn	-10527
eF	-10528
gy	-10529
hI	-10530
hZ	-10531
ii	-10532
kR	-10533
ka	-10534
lv	-10535
oj	-10536
pc	-10537
sd	-10538
tG	-10539
tg	-10540
xa	-10541
xc	-10542
xf	-10543
xq	-10544
xz	-10545
yA	-10546
yL	-10547
yS	-10548
yT	-10549
yV	-10550
ya	-10551
yb	-10552
yc	-10553
yd	-10554
ym	-10555
yo	-10556
ys	-10557
yt	-10558
yu	-10559
yw	-10560
zA	-10561
zC	-10562
za	-10563
zi	-10564
zq	-10565
▁`	-10566
-00	-10567
4-1	-10568
801	-10569
984	-10570
AiP	-10571
Are	-10572
Ast	-10573
Ban	-10574
BiC	-10575
Bor	-10576
Buo	-10577
But	-10578
Cam	-10579
Car	-10580
Cen	-10581
Cep	-10582
Cit	-10583
Cle	-10584
Cly	-10585
Dri	-10586
Ear	-10587
Fin	-10588
FjU	-10589
Fou	-10590
Fut	-10591
Har	-10592
Hir	-10593
How	-10594
Iho	-10595
Isr	-10596
Jam	-10597
Jes	-10598
KyQ	-10599
0.	-10600
3.	-10601
5,	-10602
5:	-10603
91	-10604
Ci	-10605
El	-10606
Ff	-10607
GV	-10608
Gu	-10609
HY	-10610
IB	-10611
KI	-10612
MW	-10613
Pq	-10614
Tg	-10615
UY	-10616
Xp	-10617
YT	-10618
aZ	-10619
cG	-10620
dq	-10621
eT	-10622
eW	-10623
gD	-10624
jX	-10625
kZ	-10626
kc	-10627
lF	-10628
lP	-10629
mJ	-10630
nw	-10631
pT	-10632
pj	-10633
sI	-10634
tv	-10635
uK	-10636
vH	-10637
vr	-10638
wI	-10639
xT	-10640
LLS	-10641
Lan	-10642
Lar	-10643
Les	-10644
Let	-10645
Low	-10646
Man	-10647
Mas	-10648
Nor	-10649
Not	-10650
Now	-10651
OPh	-10652
Out	-10653
Pac	-10654
Pap	-10655
Pon	-10656
Pow	-10657
Pro	-10658
Ran	-10659
Rat	-10660
Res	-10661
Rin	-10662
Rot	-10663
SOb	-10664
Sam	-10665
She	-10666
Sou	-10667
Tdn	-10668
Ter	-10669
Tre	-10670
Ubr	-10671
Und	-10672
UpK	-10673
Usi	-10674
VUI	-10675
WPq	-10676
WSY	-10677
WaH	-10678
Wit	-10679
Yes	-10680
Zlm	-10681
aIV	-10682
aUk	-10683
aci	-10684
ads	-10685
ahe	-10686
ais	-10687
akd	-10688
ala	-10689
amb	-10690
ami	-10691
anF	-10692
anu	-10693
apa	-10694
ari	-10695
aso	-10696
ata	-10697
atc	-10698
awn	-10699
-2	-10700
52	-10701
7.	-10702
82	-10703
84	-10704
90	-10705
CC	-10706
Dz	-10707
HD	-10708
JW	-10709
LR	-10710
LS	-10711
MD	-10712
PG	-10713
Qe	-10714
Uh	-10715
Uy	-10716
VV	-10717
XD	-10718
Zk	-10719
Zn	-10720
cR	-10721
cX	-10722
gH	-10723
gZ	-10724
hj	-10725
mM	-10726
mX	-10727
mz	-10728
sL	-10729
tI	-10730
vb	-10731
vc	-10732
wp	-10733
yv	-10734
Her	-10735
Set	-10736
Vcl	-10737
aya	-10738
ayn	-10739
ays	-10740
bre	-10741
bus	-10742
cYT	-10743
cal	-10744
ccu	-10745
chl	-10746
cif	-10747
cit	-10748
cts	-10749
dal	-10750
dam	-10751
dhe	-10752
dic	-10753
dul	-10754
eam	-10755
ean	-10756
eas	-10757
ece	-10758
edr	-10759
eem	-10760
ehe	-10761
eit	-10762
elc	-10763
eld	-10764
eng	-10765
eni	-10766
enl	-10767
epC	-10768
equ	-10769
era	-10770
erc	-10771
erd	-10772
erf	-10773
erm	-10774
erp	-10775
eru	-10776
ese	-10777
eta	-10778
eti	-10779
ett	-10780
eur	-10781
eze	-10782
fee	-10783
fen	-10784
fet	-10785
ffa	-10786
fid	-10787
for	-10788
fre	-10789
fun	-10790
gas	-10791
ggl	-10792
ghb	-10793
gon	-10794
gor	-10795
gra	-10796
had	-10797
hal	-10798
ham	-10799
-.	-10800
97	-10801
Ab	-10802
Ac	-10803
Ba	-10804
Bb	-10805
Cg	-10806
Cu	-10807
FU	-10808
HI	-10809
IT	-10810
Ko	-10811
Ni	-10812
Nq	-10813
QH	-10814
VS	-10815
Wy	-10816
YJ	-10817
Yd	-10818
ZK	-10819
cp	-10820
eN	-10821
fY	-10822
fb	-10823
hl	-10824
jc	-10825
lb	-10826
mc	-10827
nQ	-10828
pO	-10829
qP	-10830
sU	-10831
uH	-10832
wD	-10833
wS	-10834
xD	-10835
yl	-10836
zD	-10837
941	-10838
Ale	-10839
Mis	-10840
RFj	-10841
Sin	-10842
Yet	-10843
edu	-10844
ein	-10845
hay	-10846
hee	-10847
hei	-10848
hew	-10849
hhe	-10850
hie	-10851
hin	-10852
hir	-10853
hre	-10854
iad	-10855
ibS	-10856
icr	-10857
idv	-10858
ien	-10859
igg	-10860
ila	-10861
ims	-10862
inf	-10863
inh	-10864
inj	-10865
inw	-10866
irb	-10867
isc	-10868
isk	-10869
ita	-10870
itn	-10871
jer	-10872
jor	-10873
kep	-10874
kin	-10875
kis	-10876
kit	-10877
kjb	-10878
ktK	-10879
lat	-10880
ldl	-10881
ldw	-10882
lec	-10883
lee	-10884
lev	-10885
lle	-10886
llu	-10887
lop	-10888
lou	-10889
lri	-10890
lut	-10891
lyd	-10892
mac	-10893
mil	-10894
min	-10895
mir	-10896
mit	-10897
mse	-10898
mut	-10899
BZ	-10900
Dg	-10901
En	-10902
Et	-10903
FI	-10904
GO	-10905
Ga	-10906
HH	-10907
Hu	-10908
Hz	-10909
IC	-10910
Ja	-10911
LO	-10912
Ml	-10913
OO	-10914
Px	-10915
RH	-10916
Rx	-10917
UC	-10918
Uk	-10919
Vt	-10920
WF	-10921
WZ	-10922
ah	-10923
df	-10924
dh	-10925
eU	-10926
gX	-10927
gw	-10928
iB	-10929
jh	-10930
kP	-10931
lh	-10932
mO	-10933
mY	-10934
nb	-10935
pn	-10936
qd	-10937
qf	-10938
sv	-10939
vM	-10940
xJ	-10941
xK	-10942
xu	-10943
yQ	-10944
zb	-10945
LNX	-10946
Nic	-10947
Wat	-10948
adw	-10949
arc	-10950
but	-10951
cau	-10952
eou	-10953
gle	-10954
heA	-10955
hou	-10956
iar	-10957
nam	-10958
nar	-10959
nat	-10960
nda	-10961
ndn	-10962
ndw	-10963
ndy	-10964
nhe	-10965
nol	-10966
nou	-10967
nre	-10968
ntc	-10969
nts	-10970
oad	-10971
oat	-10972
ola	-10973
oly	-10974
omf	-10975
omi	-10976
onk	-10977
onn	-10978
onq	-10979
oom	-10980
opl	-10981
ora	-10982
orf	-10983
orw	-10984
ota	-10985
otr	-10986
oup	-10987
owa	-10988
owe	-10989
owl	-10990
pes	-10991
phe	-10992
pid	-10993
poc	-10994
pot	-10995
ppi	-10996
ppo	-10997
ppr	-10998
qui	-10999
BA	-11000
EI	-11001
FW	-11002
IF	-11003
Ip	-11004
Jo	-11005
KH	-11006
Kh	-11007
Ki	-11008
MM	-11009
Mc	-11010
NJ	-11011
NP	-11012
VW	-11013
Vw	-11014
Xc	-11015
ZN	-11016
Zf	-11017
aI	-11018
dZ	-11019
eC	-11020
fE	-11021
iL	-11022
iu	-11023
kX	-11024
kj	-11025
lV	-11026
nE	-11027
nZ	-11028
nz	-11029
pw	-11030
uQ	-11031
uz	-11032
wb	-11033
xy	-11034
yK	-11035
zU	-11036
zn	-11037
DWa	-11038
Did	-11039
ExE	-11040
HTC	-11041
Hal	-11042
Min	-11043
Put	-11044
Wes	-11045
dre	-11046
hey	-11047
hfw	-11048
isZ	-11049
kid	-11050
pas	-11051
qVV	-11052
qxK	-11053
rab	-11054
rad	-11055
raf	-11056
ran	-11057
rce	-11058
rds	-11059
rea	-11060
reb	-11061
rel	-11062
rem	-11063
reo	-11064
rep	-11065
req	-11066
rev	-11067
rig	-11068
riu	-11069
roc	-11070
rog	-11071
rri	-11072
rut	-11073
rve	-11074
sat	-11075
sef	-11076
sen	-11077
sil	-11078
som	-11079
sor	-11080
squ	-11081
ste	-11082
sts	-11083
sty	-11084
sur	-11085
tas	-11086
tes	-11087
thd	-11088
ths	-11089
tic	-11090
tim	-11091
tin	-11092
tos	-11093
trC	-11094
tra	-11095
tro	-11096
tur	-11097
uWa	-11098
uad	-11099
Bn	-11100
EF	-11101
Fx	-11102
Jm	-11103
KG	-11104
Ov	-11105
PQ	-11106
QQ	-11107
Qw	-11108
RG	-11109
Sk	-11110
Sl	-11111
Sn	-11112
Sp	-11113
TH	-11114
Ta	-11115
Tr	-11116
Uq	-11117
WY	-11118
Ys	-11119
ZI	-11120
cd	-11121
dk	-11122
dp	-11123
iR	-11124
iX	-11125
jf	-11126
lB	-11127
nF	-11128
pE	-11129
qL	-11130
qn	-11131
sf	-11132
tA	-11133
xI	-11134
xx	-11135
**9	-11136
Aut	-11137
OKv	-11138
Pfp	-11139
cqu	-11140
fou	-11141
hac	-11142
lon	-11143
ndu	-11144
onc	-11145
rin	-11146
rys	-11147
uar	-11148
uat	-11149
uen	-11150
uer	-11151
ues	-11152
uic	-11153
uil	-11154
ulg	-11155
uli	-11156
unn	-11157
unr	-11158
uou	-11159
urb	-11160
urg	-11161
usp	-11162
uta	-11163
uti	-11164
utn	-11165
vag	-11166
van	-11167
vem	-11168
vom	-11169
wSH	-11170
was	-11171
wat	-11172
whe	-11173
wif	-11174
wig	-11175
wim	-11176
win	-11177
wis	-11178
yed	-11179
yor	-11180
yot	-11181
zPI	-11182
zer	-11183
zkX	-11184
▁43	-11185
▁AL	-11186
▁Ax	-11187
▁Bp	-11188
▁Di	-11189
▁Eg	-11190
▁Gi	-11191
▁Ja	-11192
▁Mo	-11193
▁Mu	-11194
▁Ro	-11195
▁Ta	-11196
▁Ti	-11197
▁Tu	-11198
▁UY	-11199
2.	-11200
CB	-11201
DW	-11202
EA	-11203
GX	-11204
Hl	-11205
Jr	-11206
Kf	-11207
Ny	-11208
PZ	-11209
QK	-11210
RS	-11211
TW	-11212
Tu	-11213
UP	-11214
Uj	-11215
Ur	-11216
VN	-11217
VO	-11218
Vj	-11219
Vs	-11220
WA	-11221
WM	-11222
Wn	-11223
Wu	-11224
ZF	-11225
Zz	-11226
aH	-11227
aT	-11228
aj	-11229
dM	-11230
eG	-11231
fI	-11232
gA	-11233
iJ	-11234
jk	-11235
nG	-11236
nf	-11237
nr	-11238
qD	-11239
sE	-11240
sr	-11241
vG	-11242
vk	-11243
wC	-11244
xo	-11245
yj	-11246
Ber	-11247
Sav	-11248
Whe	-11249
fam	-11250
fas	-11251
gTL	-11252
hec	-11253
hep	-11254
lar	-11255
nim	-11256
oct	-11257
oos	-11258
oro	-11259
ulp	-11260
wom	-11261
xth	-11262
▁Va	-11263
▁Zd	-11264
▁ci	-11265
▁dZ	-11266
▁dw	-11267
▁dy	-11268
▁eN	-11269
▁ec	-11270
▁ei	-11271
▁fi	-11272
▁gA	-11273
▁gy	-11274
▁lz	-11275
▁mC	-11276
▁mW	-11277
▁mi	-11278
▁na	-11279
▁oE	-11280
▁oR	-11281
▁op	-11282
▁os	-11283
▁ov	-11284
▁rX	-11285
▁rh	-11286
▁sd	-11287
▁si	-11288
▁sq	-11289
▁tA	-11290
▁ta	-11291
▁td	-11292
▁tu	-11293
▁tx	-11294
▁uh	-11295
▁wi	-11296
▁wp	-11297
Chat	-11298
Dear	-11299
96	-11300
AQ	-11301
CJ	-11302
CY	-11303
CZ	-11304
DD	-11305
Dh	-11306
HP	-11307
Mv	-11308
Nz	-11309
Rp	-11310
UT	-11311
VM	-11312
Ww	-11313
YB	-11314
Zd	-11315
aA	-11316
bL	-11317
cj	-11318
cs	-11319
cw	-11320
dj	-11321
dm	-11322
fU	-11323
fZ	-11324
fc	-11325
gU	-11326
gV	-11327
hA	-11328
ko	-11329
kr	-11330
kx	-11331
lg	-11332
nW	-11333
pC	-11334
pJ	-11335
qj	-11336
tm	-11337
ux	-11338
xF	-11339
xh	-11340
zW	-11341
zl	-11342
Fre	-11343
Upp	-11344
ZzP	-11345
cQH	-11346
cin	-11347
eel	-11348
ghe	-11349
gis	-11350
hel	-11351
lie	-11352
llt	-11353
oem	-11354
omp	-11355
ono	-11356
raz	-11357
ses	-11358
sic	-11359
uns	-11360
ygh	-11361
you	-11362
yqP	-11363
▁MM	-11364
▁Pa	-11365
▁aj	-11366
▁ni	-11367
Fall	-11368
Fing	-11369
Fore	-11370
Gust	-11371
Over	-11372
SHir	-11373
Wine	-11374
Writ	-11375
acan	-11376
acre	-11377
actm	-11378
adac	-11379
adio	-11380
adow	-11381
agic	-11382
aine	-11383
aise	-11384
aist	-11385
alan	-11386
alis	-11387
alit	-11388
allw	-11389
alog	-11390
anad	-11391
anet	-11392
angs	-11393
angz	-11394
anit	-11395
ankl	-11396
ante	-11397
arac	-11398
arco	-11399
38	-11400
BJ	-11401
Cc	-11402
Eh	-11403
GY	-11404
IQ	-11405
Ih	-11406
JZ	-11407
KV	-11408
LI	-11409
MT	-11410
Mx	-11411
OC	-11412
Oo	-11413
Rh	-11414
Vc	-11415
XO	-11416
YD	-11417
dB	-11418
dI	-11419
ej	-11420
fJ	-11421
fV	-11422
hD	-11423
hw	-11424
hx	-11425
jA	-11426
jO	-11427
jP	-11428
kt	-11429
ku	-11430
lL	-11431
ln	-11432
mR	-11433
mW	-11434
nC	-11435
oO	-11436
pK	-11437
pY	-11438
qM	-11439
qi	-11440
rP	-11441
rR	-11442
sZ	-11443
tF	-11444
vB	-11445
xW	-11446
690	-11447
Can	-11448
Pud	-11449
asf	-11450
del	-11451
esu	-11452
idi	-11453
kou	-11454
lep	-11455
oov	-11456
rec	-11457
sto	-11458
uAm	-11459
▁Ot	-11460
▁hx	-11461
▁ty	-11462
anle	-11463
arit	-11464
arkn	-11465
arou	-11466
arre	-11467
arse	-11468
artb	-11469
asem	-11470
asis	-11471
ason	-11472
atar	-11473
atas	-11474
aten	-11475
ayal	-11476
ayed	-11477
ball	-11478
blic	-11479
cend	-11480
chiz	-11481
choo	-11482
ckle	-11483
clar	-11484
clot	-11485
coct	-11486
coll	-11487
cove	-11488
dent	-11489
dies	-11490
dren	-11491
eall	-11492
eans	-11493
east	-11494
eden	-11495
edic	-11496
edly	-11497
edom	-11498
eing	-11499
BO	-11500
DO	-11501
HT	-11502
IE	-11503
IM	-11504
MA	-11505
MG	-11506
OQ	-11507
Qz	-11508
Rz	-11509
Tl	-11510
Vl	-11511
XA	-11512
XM	-11513
Xf	-11514
ZX	-11515
aS	-11516
cM	-11517
cf	-11518
dC	-11519
fL	-11520
kq	-11521
lA	-11522
lI	-11523
lZ	-11524
mH	-11525
nY	-11526
oR	-11527
pW	-11528
pg	-11529
qb	-11530
rz	-11531
sq	-11532
vI	-11533
vf	-11534
wB	-11535
wL	-11536
afe	-11537
atb	-11538
bou	-11539
cis	-11540
ino	-11541
irs	-11542
isi	-11543
kee	-11544
nap	-11545
ndL	-11546
ndh	-11547
ole	-11548
uce	-11549
uin	-11550
xim	-11551
yin	-11552
▁Pu	-11553
▁ou	-11554
amou	-11555
emem	-11556
enit	-11557
enly	-11558
enti	-11559
entr	-11560
eper	-11561
eral	-11562
eras	-11563
erce	-11564
erfe	-11565
erhe	-11566
eric	-11567
erin	-11568
erle	-11569
erou	-11570
eser	-11571
eset	-11572
esis	-11573
etal	-11574
etim	-11575
etit	-11576
etly	-11577
even	-11578
fact	-11579
feat	-11580
fend	-11581
fern	-11582
ffed	-11583
fled	-11584
geou	-11585
gets	-11586
ggle	-11587
ghtf	-11588
ghtm	-11589
ghts	-11590
ghty	-11591
gist	-11592
gled	-11593
gnis	-11594
gust	-11595
heas	-11596
heat	-11597
heer	-11598
hees	-11599
AS	-11600
Ec	-11601
LQ	-11602
NX	-11603
iY	-11604
uG	-11605
zw	-11606
Bot	-11607
Din	-11608
Dur	-11609
Kin	-11610
LRL	-11611
Las	-11612
Nin	-11613
Pou	-11614
Win	-11615
alu	-11616
ati	-11617
aul	-11618
bin	-11619
dil	-11620
din	-11621
esi	-11622
fec	-11623
fin	-11624
heS	-11625
hea	-11626
hem	-11627
icl	-11628
iin	-11629
inQ	-11630
inb	-11631
inc	-11632
inl	-11633
inu	-11634
inv	-11635
ira	-11636
jin	-11637
nin	-11638
oin	-11639
pin	-11640
pon	-11641
pun	-11642
rhe	-11643
rim	-11644
sin	-11645
xin	-11646
yan	-11647
zin	-11648
▁Et	-11649
▁Pi	-11650
▁af	-11651
▁ai	-11652
▁au	-11653
▁ti	-11654
enst	-11655
erad	-11656
heet	-11657
hemy	-11658
herf	-11659
herm	-11660
hese	-11661
icad	-11662
iche	-11663
iday	-11664
idew	-11665
ierc	-11666
ighl	-11667
igit	-11668
ilat	-11669
illa	-11670
imat	-11671
imen	-11672
imse	-11673
inal	-11674
inar	-11675
inat	-11676
ineH	-11677
inel	-11678
ingP	-11679
ingd	-11680
ingt	-11681
ingu	-11682
inhe	-11683
inin	-11684
init	-11685
inor	-11686
inst	-11687
inut	-11688
iona	-11689
iral	-11690
irat	-11691
iref	-11692
irel	-11693
iron	-11694
ishe	-11695
isin	-11696
isit	-11697
isms	-11698
isse	-11699
Bet	-11700
Bre	-11701
Cre	-11702
Dar	-11703
Dre	-11704
Ger	-11705
Gre	-11706
Mer	-11707
Ner	-11708
Per	-11709
Pre	-11710
Ser	-11711
Tor	-11712
Ver	-11713
ali	-11714
bil	-11715
cro	-11716
dis	-11717
dou	-11718
eer	-11719
enb	-11720
erb	-11721
erh	-11722
eri	-11723
erw	-11724
gre	-11725
him	-11726
hur	-11727
ico	-11728
iec	-11729
ima	-11730
lac	-11731
ler	-11732
lre	-11733
mly	-11734
osi	-11735
pst	-11736
ref	-11737
reg	-11738
rej	-11739
rer	-11740
res	-11741
rre	-11742
ser	-11743
sse	-11744
tou	-11745
tre	-11746
tst	-11747
vie	-11748
vre	-11749
yer	-11750
zar	-11751
▁EL	-11752
▁Rm	-11753
▁ba	-11754
▁hi	-11755
▁oa	-11756
▁oc	-11757
▁ol	-11758
▁ot	-11759
▁ow	-11760
▁ps	-11761
Aver	-11762
ccas	-11763
enta	-11764
esid	-11765
gate	-11766
isty	-11767
iter	-11768
itic	-11769
ixed	-11770
just	-11771
kend	-11772
kept	-11773
kere	-11774
kill	-11775
kins	-11776
lace	-11777
lack	-11778
lain	-11779
lden	-11780
leat	-11781
leed	-11782
lest	-11783
lind	-11784
lint	-11785
lipp	-11786
list	-11787
llar	-11788
lles	-11789
lock	-11790
loop	-11791
lter	-11792
lway	-11793
mall	-11794
mbly	-11795
mith	-11796
mons	-11797
mory	-11798
nden	-11799
Cou	-11800
Hou	-11801
Ind	-11802
You	-11803
adl	-11804
ckD	-11805
enc	-11806
end	-11807
fir	-11808
hon	-11809
iou	-11810
iso	-11811
jes	-11812
jou	-11813
kon	-11814
llb	-11815
mcQ	-11816
mou	-11817
ndc	-11818
nde	-11819
ndf	-11820
ndi	-11821
ndk	-11822
ndl	-11823
ndr	-11824
nel	-11825
orr	-11826
ott	-11827
ouU	-11828
oub	-11829
ouc	-11830
oug	-11831
oul	-11832
pou	-11833
sle	-11834
tun	-11835
ueb	-11836
utu	-11837
vou	-11838
▁NA	-11839
King	-11840
ding	-11841
ente	-11842
ilor	-11843
imal	-11844
imes	-11845
inge	-11846
ingl	-11847
isor	-11848
jing	-11849
llou	-11850
ndia	-11851
ndic	-11852
ndin	-11853
ndle	-11854
ndou	-11855
ndow	-11856
ndre	-11857
nown	-11858
oday	-11859
odil	-11860
oing	-11861
oire	-11862
olar	-11863
olds	-11864
olut	-11865
omen	-11866
omet	-11867
omin	-11868
once	-11869
onet	-11870
ongu	-11871
onic	-11872
onit	-11873
onom	-11874
onor	-11875
onou	-11876
onse	-11877
oodb	-11878
opat	-11879
opic	-11880
opon	-11881
opri	-11882
orat	-11883
oref	-11884
oris	-11885
orns	-11886
orps	-11887
orre	-11888
orsh	-11889
orst	-11890
otat	-11891
otpr	-11892
otst	-11893
ouch	-11894
ouds	-11895
oudy	-11896
oure	-11897
owly	-11898
pace	-11899
Con	-11900
Hit	-11901
Jed	-11902
Lit	-11903
Nar	-11904
Sat	-11905
War	-11906
cir	-11907
das	-11908
eda	-11909
edb	-11910
edd	-11911
ede	-11912
edg	-11913
edl	-11914
edo	-11915
edy	-11916
eed	-11917
esc	-11918
ghl	-11919
hit	-11920
iti	-11921
itt	-11922
lis	-11923
mat	-11924
nit	-11925
niz	-11926
nth	-11927
oed	-11928
opi	-11929
osf	-11930
qed	-11931
raw	-11932
sta	-11933
tow	-11934
uit	-11935
vBs	-11936
wed	-11937
wit	-11938
xyg	-11939
▁Au	-11940
▁Ca	-11941
▁Co	-11942
▁Ij	-11943
▁Im	-11944
arle	-11945
asse	-11946
chop	-11947
enar	-11948
erly	-11949
erst	-11950
esig	-11951
esol	-11952
iing	-11953
indl	-11954
ingn	-11955
ishm	-11956
lder	-11957
leas	-11958
onat	-11959
ourt	-11960
pact	-11961
pass	-11962
path	-11963
pens	-11964
peri	-11965
phal	-11966
pied	-11967
pion	-11968
pite	-11969
play	-11970
plex	-11971
plic	-11972
plod	-11973
ppen	-11974
ppin	-11975
ppon	-11976
ppro	-11977
ptac	-11978
ptin	-11979
pton	-11980
ptor	-11981
quin	-11982
quit	-11983
rack	-11984
raid	-11985
rais	-11986
rant	-11987
rapp	-11988
rave	-11989
real	-11990
reco	-11991
rect	-11992
redd	-11993
reer	-11994
reez	-11995
rehe	-11996
rele	-11997
renc	-11998
rere	-11999
Cor	-12000
Dor	-12001
Hor	-12002
Lor	-12003
Mor	-12004
Pit	-12005
Ple	-12006
Por	-12007
RdD	-12008
Rit	-12009
Sit	-12010
Sor	-12011
Wor	-12012
alZ	-12013
anj	-12014
asa	-12015
asu	-12016
atu	-12017
beb	-12018
bor	-12019
cat	-12020
cor	-12021
dat	-12022
dor	-12023
git	-12024
iat	-12025
idu	-12026
isb	-12027
itu	-12028
jit	-12029
lea	-12030
nor	-12031
ods	-12032
oor	-12033
orb	-12034
orc	-12035
ori	-12036
ork	-12037
orl	-12038
oru	-12039
pat	-12040
pel	-12041
pit	-12042
por	-12043
ppe	-12044
rav	-12045
rov	-12046
sly	-12047
tat	-12048
tit	-12049
tor	-12050
utt	-12051
vor	-12052
xit	-12053
yal	-12054
▁PV	-12055
▁ul	-12056
acad	-12057
athe	-12058
bebg	-12059
edit	-12060
erme	-12061
eror	-12062
forg	-12063
itan	-12064
ithe	-12065
nual	-12066
onot	-12067
orin	-12068
owin	-12069
rese	-12070
rest	-12071
rict	-12072
rier	-12073
rike	-12074
rill	-12075
rint	-12076
ripp	-12077
rith	-12078
roac	-12079
roop	-12080
rous	-12081
rove	-12082
rror	-12083
sand	-12084
sect	-12085
some	-12086
spap	-12087
spir	-12088
sted	-12089
step	-12090
stin	-12091
stor	-12092
tYhj	-12093
tain	-12094
thoo	-12095
thou	-12096
tire	-12097
tlef	-12098
tlet	-12099
'..	-12100
00.	-12101
Bat	-12102
Des	-12103
Dis	-12104
His	-12105
Nat	-12106
Pat	-12107
anh	-12108
atQ	-12109
atl	-12110
atm	-12111
atr	-12112
bat	-12113
dly	-12114
eis	-12115
fat	-12116
fis	-12117
his	-12118
ipi	-12119
isa	-12120
isl	-12121
isr	-12122
isu	-12123
lth	-12124
lyp	-12125
mes	-12126
nes	-12127
nis	-12128
oes	-12129
oet	-12130
ois	-12131
owd	-12132
pis	-12133
ris	-12134
sis	-12135
tis	-12136
uis	-12137
wap	-12138
xis	-12139
yes	-12140
zat	-12141
▁du	-12142
▁hu	-12143
▁ic	-12144
ardl	-12145
atis	-12146
atre	-12147
erat	-12148
erse	-12149
ghtd	-12150
heis	-12151
ickn	-12152
iser	-12153
isis	-12154
ista	-12155
istl	-12156
itat	-12157
ntry	-12158
otou	-12159
over	-12160
prou	-12161
sear	-12162
sist	-12163
stim	-12164
ture	-12165
uent	-12166
uest	-12167
uffs	-12168
ught	-12169
uies	-12170
uing	-12171
uins	-12172
ulla	-12173
ulou	-12174
ulse	-12175
uman	-12176
umid	-12177
unit	-12178
uous	-12179
ural	-12180
urch	-12181
urer	-12182
urit	-12183
urpr	-12184
urre	-12185
urtu	-12186
usic	-12187
uspe	-12188
ustl	-12189
ustr	-12190
utes	-12191
utor	-12192
vell	-12193
vera	-12194
verb	-12195
verl	-12196
verr	-12197
vert	-12198
vile	-12199
,00	-12200
Gen	-12201
Ken	-12202
Mes	-12203
Nes	-12204
Qzk	-12205
Ten	-12206
Wen	-12207
aly	-12208
arC	-12209
ben	-12210
bes	-12211
bgk	-12212
cen	-12213
den	-12214
ena	-12215
enh	-12216
enj	-12217
eny	-12218
enz	-12219
epf	-12220
esk	-12221
eso	-12222
esp	-12223
fes	-12224
gen	-12225
hol	-12226
idg	-12227
len	-12228
men	-12229
nal	-12230
nen	-12231
nic	-12232
nta	-12233
rwl	-12234
uls	-12235
wen	-12236
wes	-12237
▁LO	-12238
▁RU	-12239
▁TD	-12240
▁ge	-12241
▁lu	-12242
▁ly	-12243
adqu	-12244
anat	-12245
ener	-12246
enou	-12247
erot	-12248
eshe	-12249
gely	-12250
gulf	-12251
icit	-12252
inen	-12253
ites	-12254
kely	-12255
mers	-12256
ndan	-12257
ndom	-12258
oreo	-12259
orld	-12260
reen	-12261
ryst	-12262
uild	-12263
vine	-12264
vive	-12265
vren	-12266
xact	-12267
xing	-12268
xist	-12269
zard	-12270
zing	-12271
▁**2	-12272
▁**9	-12273
▁-00	-12274
▁10,	-12275
▁201	-12276
▁ADI	-12277
▁Bee	-12278
▁Bei	-12279
▁Ber	-12280
▁Bre	-12281
▁Car	-12282
▁Cho	-12283
▁Cit	-12284
▁Cor	-12285
▁Cou	-12286
▁Din	-12287
▁Gre	-12288
▁Hal	-12289
▁Hit	-12290
▁Hun	-12291
▁Kur	-12292
▁Lan	-12293
▁Lau	-12294
▁Mem	-12295
▁Mes	-12296
▁Min	-12297
▁Mis	-12298
▁Nap	-12299
Cas	-12300
Mar	-12301
OVS	-12302
Par	-12303
Pas	-12304
Qme	-12305
Vir	-12306
acc	-12307
ana	-12308
arf	-12309
arn	-12310
arv	-12311
asi	-12312
ask	-12313
asp	-12314
asy	-12315
bar	-12316
car	-12317
cas	-12318
cep	-12319
chi	-12320
cip	-12321
dar	-12322
eme	-12323
gar	-12324
har	-12325
has	-12326
ias	-12327
icu	-12328
izz	-12329
kar	-12330
las	-12331
lum	-12332
mar	-12333
oar	-12334
omE	-12335
par	-12336
ptu	-12337
ras	-12338
sar	-12339
tar	-12340
yar	-12341
▁En	-12342
▁eg	-12343
arat	-12344
arin	-12345
ashe	-12346
enan	-12347
esar	-12348
hear	-12349
hind	-12350
inly	-12351
itar	-12352
ntcz	-12353
oice	-12354
orar	-12355
reac	-12356
rear	-12357
reas	-12358
ules	-12359
▁Nes	-12360
▁Nob	-12361
▁Pou	-12362
▁Reg	-12363
▁Roo	-12364
▁Sat	-12365
▁Sel	-12366
▁Sou	-12367
▁Tal	-12368
▁Tho	-12369
▁Tim	-12370
▁Tow	-12371
▁Und	-12372
▁Upp	-12373
▁Vad	-12374
▁Ver	-12375
▁Wel	-12376
▁Wen	-12377
▁Wes	-12378
▁Win	-12379
▁afl	-12380
▁ahe	-12381
▁ain	-12382
▁alm	-12383
▁anc	-12384
▁awk	-12385
▁bac	-12386
▁ban	-12387
▁bar	-12388
▁bea	-12389
▁ben	-12390
▁ber	-12391
▁bis	-12392
▁bla	-12393
▁blu	-12394
▁bob	-12395
▁boo	-12396
▁bor	-12397
▁bou	-12398
▁bre	-12399
Aan	-12400
All	-12401
Dan	-12402
Has	-12403
Hon	-12404
Lad	-12405
Lon	-12406
Non	-12407
San	-12408
WGD	-12409
anc	-12410
ani	-12411
anl	-12412
any	-12413
asc	-12414
asq	-12415
can	-12416
don	-12417
eon	-12418
gan	-12419
jut	-12420
lan	-12421
lid	-12422
lla	-12423
lli	-12424
llw	-12425
lly	-12426
mal	-12427
mas	-12428
nan	-12429
nas	-12430
non	-12431
oan	-12432
oas	-12433
oma	-12434
ona	-12435
onf	-12436
oni	-12437
onl	-12438
onu	-12439
onv	-12440
oon	-12441
opy	-12442
ppl	-12443
sas	-12444
wel	-12445
xas	-12446
Ever	-12447
Just	-12448
anes	-12449
anic	-12450
aser	-12451
aybe	-12452
chot	-12453
eniz	-12454
hell	-12455
imed	-12456
inan	-12457
inka	-12458
isas	-12459
iton	-12460
llen	-12461
ller	-12462
mist	-12463
ndch	-12464
ndon	-12465
omis	-12466
onar	-12467
onen	-12468
oust	-12469
rame	-12470
uard	-12471
▁bom	-12472
▁cam	-12473
▁cau	-12474
▁ced	-12475
▁cem	-12476
▁cen	-12477
▁cer	-12478
▁cha	-12479
▁cit	-12480
▁cla	-12481
▁cos	-12482
▁cru	-12483
▁dan	-12484
▁dar	-12485
▁dat	-12486
▁dee	-12487
▁dev	-12488
▁don	-12489
▁dow	-12490
▁eac	-12491
▁eer	-12492
▁emp	-12493
▁enj	-12494
▁exu	-12495
▁fas	-12496
▁fat	-12497
▁fen	-12498
▁fer	-12499
200	-12500
AmH	-12501
Eac	-12502
Goo	-12503
Pan	-12504
Pop	-12505
Som	-12506
Vby	-12507
Vic	-12508
acu	-12509
anG	-12510
anf	-12511
anq	-12512
anw	-12513
cht	-12514
cop	-12515
dan	-12516
dle	-12517
ele	-12518
fan	-12519
ghw	-12520
kle	-12521
leb	-12522
lef	-12523
leg	-12524
lel	-12525
omm	-12526
riv	-12527
roo	-12528
san	-12529
tal	-12530
tch	-12531
tel	-12532
ule	-12533
▁TH	-12534
▁Te	-12535
▁gS	-12536
▁nY	-12537
▁nu	-12538
▁ye	-12539
Jell	-12540
RGBJ	-12541
asan	-12542
aver	-12543
blet	-12544
esto	-12545
gged	-12546
hery	-12547
impl	-12548
inky	-12549
itle	-12550
ldly	-12551
part	-12552
reni	-12553
utif	-12554
yway	-12555
▁Ter	-12556
▁Tor	-12557
▁asp	-12558
▁fis	-12559
▁fle	-12560
▁fra	-12561
▁fus	-12562
▁gar	-12563
▁gir	-12564
▁glo	-12565
▁gon	-12566
▁gul	-12567
▁hal	-12568
▁han	-12569
▁hea	-12570
▁hee	-12571
▁hen	-12572
▁hil	-12573
▁hou	-12574
▁hun	-12575
▁ima	-12576
▁ina	-12577
▁inh	-12578
▁inn	-12579
▁inv	-12580
▁inw	-12581
▁isl	-12582
▁iso	-12583
▁ite	-12584
▁kit	-12585
▁kne	-12586
▁lar	-12587
▁les	-12588
▁lin	-12589
▁lip	-12590
▁liq	-12591
▁lis	-12592
▁liv	-12593
▁lon	-12594
▁los	-12595
▁lou	-12596
▁mac	-12597
▁mat	-12598
▁mau	-12599
-..	-12600
Est	-12601
Run	-12602
Vad	-12603
Wow	-12604
bow	-12605
bst	-12606
ctr	-12607
dow	-12608
eop	-12609
etl	-12610
hot	-12611
hut	-12612
imu	-12613
lom	-12614
lve	-12615
nch	-12616
nst	-12617
omc	-12618
pac	-12619
pic	-12620
pri	-12621
rst	-12622
sam	-12623
sti	-12624
stl	-12625
utc	-12626
utl	-12627
uto	-12628
utp	-12629
utr	-12630
uty	-12631
veh	-12632
vew	-12633
xac	-12634
zom	-12635
▁Ha	-12636
▁Hz	-12637
▁ea	-12638
▁eb	-12639
▁ee	-12640
▁eq	-12641
anja	-12642
arel	-12643
arve	-12644
eble	-12645
enet	-12646
esom	-12647
ewel	-12648
gent	-12649
igot	-12650
llut	-12651
oman	-12652
omeh	-12653
omit	-12654
omor	-12655
onst	-12656
onve	-12657
rann	-12658
stan	-12659
stle	-12660
stre	-12661
vein	-12662
vend	-12663
vere	-12664
▁Aan	-12665
▁Dah	-12666
▁Mas	-12667
▁aut	-12668
▁bee	-12669
▁bey	-12670
▁cri	-12671
▁egg	-12672
▁gut	-12673
▁hei	-12674
▁hes	-12675
▁mec	-12676
▁mes	-12677
▁mid	-12678
▁moo	-12679
▁mor	-12680
▁mot	-12681
▁mou	-12682
▁mul	-12683
▁mys	-12684
▁nak	-12685
▁nam	-12686
▁nas	-12687
▁nat	-12688
▁nau	-12689
▁noz	-12690
▁nut	-12691
▁odc	-12692
▁oft	-12693
▁onb	-12694
▁onc	-12695
▁onl	-12696
▁ont	-12697
▁opt	-12698
▁orn	-12699
Bbe	-12700
Dad	-12701
Get	-12702
Hot	-12703
Mad	-12704
Pot	-12705
Sad	-12706
adn	-12707
ayf	-12708
chy	-12709
ctu	-12710
fur	-12711
fus	-12712
gAe	-12713
gha	-12714
got	-12715
lad	-12716
ldM	-12717
ldh	-12718
ldi	-12719
lds	-12720
lot	-12721
mot	-12722
otg	-12723
oti	-12724
otl	-12725
otp	-12726
rot	-12727
vot	-12728
xot	-12729
▁WA	-12730
▁Wa	-12731
▁Wi	-12732
▁Wu	-12733
Cent	-12734
WRpR	-12735
dial	-12736
erio	-12737
hick	-12738
ifer	-12739
imet	-12740
imul	-12741
irac	-12742
irbe	-12743
lded	-12744
ldes	-12745
ldre	-12746
lead	-12747
llad	-12748
lver	-12749
mort	-12750
nugg	-12751
onto	-12752
oten	-12753
unat	-12754
verc	-12755
veri	-12756
verp	-12757
▁Cle	-12758
▁Loo	-12759
▁Tak	-12760
▁nei	-12761
▁ost	-12762
▁pag	-12763
▁pap	-12764
▁pas	-12765
▁ped	-12766
▁pee	-12767
▁pic	-12768
▁pil	-12769
▁pin	-12770
▁pis	-12771
▁por	-12772
▁pou	-12773
▁rac	-12774
▁reg	-12775
▁ren	-12776
▁rev	-12777
▁rin	-12778
▁rog	-12779
▁rus	-12780
▁rut	-12781
▁sac	-12782
▁sam	-12783
▁sca	-12784
▁sci	-12785
▁sen	-12786
▁sew	-12787
▁sha	-12788
▁shi	-12789
▁sic	-12790
▁sid	-12791
▁sig	-12792
▁soa	-12793
▁soc	-12794
▁sof	-12795
▁som	-12796
▁sor	-12797
▁spl	-12798
▁sti	-12799
Bac	-12800
Fir	-12801
IVA	-12802
Jac	-12803
Kur	-12804
acm	-12805
adb	-12806
adi	-12807
adm	-12808
adq	-12809
adu	-12810
ayb	-12811
aye	-12812
ayg	-12813
eac	-12814
eet	-12815
ete	-12816
etn	-12817
etw	-12818
fac	-12819
gac	-12820
hgh	-12821
ica	-12822
ici	-12823
ilo	-12824
ipo	-12825
jac	-12826
lay	-12827
nac	-12828
nad	-12829
nck	-12830
oac	-12831
oco	-12832
pet	-12833
pro	-12834
rac	-12835
sac	-12836
sul	-12837
tac	-12838
ugh	-12839
uid	-12840
vac	-12841
vic	-12842
xal	-12843
▁84	-12844
▁Ad	-12845
▁HI	-12846
adle	-12847
arad	-12848
asic	-12849
eday	-12850
enac	-12851
gain	-12852
ghis	-12853
ghou	-12854
ican	-12855
icat	-12856
illu	-12857
inet	-12858
llet	-12859
nthe	-12860
oyle	-12861
quad	-12862
reet	-12863
spon	-12864
stro	-12865
tact	-12866
wice	-12867
▁Inc	-12868
▁cac	-12869
▁fic	-12870
▁fla	-12871
▁lac	-12872
▁myr	-12873
▁myt	-12874
▁nic	-12875
▁sel	-12876
▁sto	-12877
▁stu	-12878
▁sty	-12879
▁tal	-12880
▁tam	-12881
▁tan	-12882
▁tar	-12883
▁tas	-12884
▁tat	-12885
▁tau	-12886
▁tes	-12887
▁thi	-12888
▁tho	-12889
▁tid	-12890
▁tob	-12891
▁tod	-12892
▁tog	-12893
▁tol	-12894
▁tos	-12895
▁tow	-12896
▁tre	-12897
▁tun	-12898
▁una	-12899
Him	-12900
Pic	-12901
agu	-12902
aid	-12903
alc	-12904
alm	-12905
alr	-12906
bic	-12907
ely	-12908
fel	-12909
hly	-12910
imb	-12911
imi	-12912
imm	-12913
imp	-12914
irR	-12915
kic	-12916
kly	-12917
lim	-12918
mid	-12919
nly	-12920
oal	-12921
sal	-12922
tly	-12923
usb	-12924
val	-12925
vid	-12926
wic	-12927
▁..	-12928
▁AR	-12929
▁Ac	-12930
▁Af	-12931
▁Ai	-12932
▁Av	-12933
▁Ly	-12934
Corp	-12935
Mill	-12936
adly	-12937
alen	-12938
aler	-12939
alin	-12940
anim	-12941
arly	-12942
enim	-12943
erim	-12944
gest	-12945
herw	-12946
hone	-12947
icin	-12948
icis	-12949
imit	-12950
imor	-12951
istr	-12952
mell	-12953
onal	-12954
rawn	-12955
rely	-12956
sill	-12957
sors	-12958
stly	-12959
tart	-12960
ulip	-12961
vely	-12962
▁Ale	-12963
▁Aut	-12964
▁bic	-12965
▁dic	-12966
▁goo	-12967
▁mal	-12968
▁mim	-12969
▁tic	-12970
▁uns	-12971
▁unt	-12972
▁upc	-12973
▁usu	-12974
▁ver	-12975
▁vor	-12976
▁wal	-12977
▁wan	-12978
▁wee	-12979
▁wel	-12980
▁wen	-12981
▁wep	-12982
▁wes	-12983
▁whi	-12984
▁wis	-12985
▁yan	-12986
▁yar	-12987
AdpEo	-12988
Hjout	-12989
KCYBu	-12990
ackou	-12991
actic	-12992
adels	-12993
aders	-12994
ading	-12995
ainst	-12996
akesh	-12997
aling	-12998
alked	-12999
600	-13000
CTc	-13001
Cur	-13002
Mid	-13003
Nid	-13004
Our	-13005
Sir	-13006
Sur	-13007
bur	-13008
eir	-13009
epo	-13010
ida	-13011
idt	-13012
ifi	-13013
irc	-13014
irg	-13015
irr	-13016
iru	-13017
jur	-13018
lfl	-13019
oid	-13020
phV	-13021
pir	-13022
qua	-13023
uri	-13024
url	-13025
urp	-13026
urr	-13027
urv	-13028
vir	-13029
wir	-13030
ynt	-13031
Lear	-13032
acco	-13033
cket	-13034
eent	-13035
entu	-13036
idal	-13037
iden	-13038
idic	-13039
imid	-13040
lete	-13041
tent	-13042
umil	-13043
util	-13044
vent	-13045
went	-13046
▁**6	-13047
▁Bot	-13048
▁Pic	-13049
▁Tur	-13050
▁Wur	-13051
▁dau	-13052
▁dir	-13053
▁eag	-13054
▁fir	-13055
▁hag	-13056
▁nur	-13057
▁qui	-13058
▁rea	-13059
▁ree	-13060
▁rej	-13061
▁rew	-13062
▁wid	-13063
alled	-13064
alles	-13065
allou	-13066
allow	-13067
ancid	-13068
andch	-13069
andon	-13070
andsc	-13071
anied	-13072
anion	-13073
anton	-13074
apped	-13075
armon	-13076
arrit	-13077
arthy	-13078
asers	-13079
ashed	-13080
asier	-13081
asies	-13082
asily	-13083
atory	-13084
atred	-13085
auges	-13086
ayals	-13087
cHTCB	-13088
cause	-13089
ceans	-13090
cknow	-13091
comed	-13092
comes	-13093
cover	-13094
creas	-13095
ctive	-13096
dents	-13097
dscre	-13098
dsong	-13099
Loo	-13100
Rem	-13101
Use	-13102
Woo	-13103
azz	-13104
dig	-13105
div	-13106
hun	-13107
kef	-13108
loo	-13109
lse	-13110
lur	-13111
nke	-13112
pts	-13113
pur	-13114
rse	-13115
sUs	-13116
sec	-13117
seh	-13118
seq	-13119
ura	-13120
urc	-13121
urf	-13122
urk	-13123
▁rp	-13124
From	-13125
Kill	-13126
aith	-13127
alse	-13128
blem	-13129
cera	-13130
dess	-13131
fill	-13132
hill	-13133
hion	-13134
icke	-13135
illi	-13136
ills	-13137
illt	-13138
inkl	-13139
ithf	-13140
loto	-13141
nick	-13142
onke	-13143
orse	-13144
pill	-13145
seat	-13146
seve	-13147
till	-13148
tion	-13149
urat	-13150
urou	-13151
urve	-13152
vill	-13153
vion	-13154
▁iss	-13155
▁lik	-13156
▁loo	-13157
▁mel	-13158
▁rat	-13159
▁rou	-13160
AHWze	-13161
atron	-13162
ckets	-13163
dying	-13164
eally	-13165
earch	-13166
ecess	-13167
ector	-13168
edent	-13169
efull	-13170
ellar	-13171
elled	-13172
ellow	-13173
empor	-13174
eness	-13175
entar	-13176
entat	-13177
enten	-13178
enter	-13179
entic	-13180
entif	-13181
entim	-13182
entin	-13183
entis	-13184
entit	-13185
entom	-13186
entur	-13187
eople	-13188
epest	-13189
erces	-13190
erved	-13191
erver	-13192
escap	-13193
essar	-13194
esses	-13195
estam	-13196
estar	-13197
estig	-13198
estow	-13199
7..	-13200
:..	-13201
Boo	-13202
Roo	-13203
amm	-13204
amt	-13205
amw	-13206
cam	-13207
coo	-13208
goo	-13209
hoo	-13210
lam	-13211
oam	-13212
olf	-13213
poo	-13214
tam	-13215
too	-13216
usy	-13217
vam	-13218
wam	-13219
xam	-13220
▁Sa	-13221
▁Sk	-13222
▁Sl	-13223
▁vL	-13224
7...	-13225
GMHZ	-13226
MJsu	-13227
alam	-13228
amin	-13229
amit	-13230
enam	-13231
fers	-13232
ghte	-13233
ghtn	-13234
gure	-13235
heel	-13236
hine	-13237
host	-13238
ndri	-13239
onna	-13240
ooed	-13241
orne	-13242
quic	-13243
reck	-13244
reds	-13245
zily	-13246
▁Sad	-13247
▁Sam	-13248
▁Sin	-13249
▁Sit	-13250
▁Som	-13251
▁Sor	-13252
▁dam	-13253
▁foo	-13254
▁gam	-13255
▁gob	-13256
▁lev	-13257
▁noo	-13258
▁poo	-13259
▁seq	-13260
▁woo	-13261
aunch	-13262
chool	-13263
esire	-13264
estro	-13265
estru	-13266
etain	-13267
eting	-13268
everl	-13269
evert	-13270
fered	-13271
feren	-13272
fford	-13273
ghing	-13274
ghout	-13275
ghten	-13276
ghter	-13277
ghtly	-13278
ghway	-13279
gines	-13280
gramm	-13281
hicul	-13282
hment	-13283
hould	-13284
ialog	-13285
icall	-13286
icals	-13287
icity	-13288
icker	-13289
icket	-13290
ickly	-13291
ictat	-13292
ictor	-13293
ideou	-13294
idvin	-13295
ields	-13296
ietly	-13297
ifted	-13298
ightd	-13299
Aox	-13300
OcM	-13301
cYs	-13302
dop	-13303
fLX	-13304
hop	-13305
oph	-13306
opp	-13307
opr	-13308
ops	-13309
opu	-13310
umb	-13311
vig	-13312
zop	-13313
▁HS	-13314
▁Ho	-13315
▁Hu	-13316
Main	-13317
Pain	-13318
Pear	-13319
ainb	-13320
aind	-13321
ainy	-13322
alle	-13323
ansf	-13324
bend	-13325
bred	-13326
cred	-13327
fred	-13328
hain	-13329
hall	-13330
lved	-13331
main	-13332
omel	-13333
opes	-13334
ophe	-13335
rain	-13336
rang	-13337
ssim	-13338
stop	-13339
tack	-13340
tert	-13341
uall	-13342
unis	-13343
utop	-13344
vain	-13345
vall	-13346
wain	-13347
▁Har	-13348
▁Por	-13349
▁ech	-13350
▁gro	-13351
▁hab	-13352
▁hap	-13353
▁hau	-13354
▁hav	-13355
▁haz	-13356
▁jou	-13357
▁rop	-13358
▁sag	-13359
▁sec	-13360
▁sem	-13361
▁tak	-13362
▁tem	-13363
▁vid	-13364
ainly	-13365
arred	-13366
ftens	-13367
ierce	-13368
ighte	-13369
ightf	-13370
ightm	-13371
ights	-13372
igure	-13373
ildly	-13374
ildre	-13375
illow	-13376
illus	-13377
iment	-13378
imile	-13379
iming	-13380
imper	-13381
inall	-13382
inals	-13383
inded	-13384
inder	-13385
indow	-13386
inent	-13387
inger	-13388
inges	-13389
ingin	-13390
ingle	-13391
inter	-13392
inyer	-13393
iolog	-13394
ionar	-13395
ioned	-13396
irety	-13397
irsty	-13398
isapp	-13399
**3	-13400
Gun	-13401
Lun	-13402
Mem	-13403
aun	-13404
fri	-13405
lun	-13406
mun	-13407
una	-13408
unc	-13409
unp	-13410
▁Ba	-13411
▁Bb	-13412
▁Bi	-13413
▁Ri	-13414
▁ki	-13415
▁ku	-13416
Call	-13417
WHER	-13418
antu	-13419
bout	-13420
call	-13421
iall	-13422
jest	-13423
need	-13424
terd	-13425
term	-13426
terv	-13427
terw	-13428
tter	-13429
unic	-13430
vail	-13431
wall	-13432
▁Bac	-13433
▁Ban	-13434
▁Boo	-13435
▁Bor	-13436
▁Ins	-13437
▁asc	-13438
▁bun	-13439
▁fea	-13440
▁kic	-13441
▁kin	-13442
▁kis	-13443
▁lun	-13444
▁wea	-13445
▁wei	-13446
acter	-13447
adows	-13448
aller	-13449
alter	-13450
arall	-13451
arter	-13452
aster	-13453
capes	-13454
erall	-13455
ester	-13456
etter	-13457
ilure	-13458
imall	-13459
isect	-13460
ising	-13461
ision	-13462
isist	-13463
isted	-13464
iters	-13465
ithin	-13466
ithou	-13467
iting	-13468
ittle	-13469
itual	-13470
izard	-13471
kenly	-13472
lding	-13473
lenty	-13474
lever	-13475
lexed	-13476
lexia	-13477
lfred	-13478
lling	-13479
llion	-13480
lmost	-13481
lters	-13482
mbers	-13483
mical	-13484
mired	-13485
mness	-13486
ndant	-13487
ndent	-13488
ndern	-13489
ndful	-13490
ndred	-13491
nduct	-13492
nessw	-13493
nfore	-13494
nings	-13495
niver	-13496
ntain	-13497
nting	-13498
odils	-13499
AMl	-13500
Agq	-13501
Fds	-13502
Gri	-13503
Pri	-13504
Uri	-13505
cce	-13506
cei	-13507
dri	-13508
dsc	-13509
dsv	-13510
fzn	-13511
hro	-13512
riz	-13513
rob	-13514
rod	-13515
rok	-13516
roz	-13517
tri	-13518
xce	-13519
Less	-13520
ackp	-13521
aliv	-13522
bile	-13523
ceal	-13524
cean	-13525
ceed	-13526
core	-13527
dson	-13528
essa	-13529
essn	-13530
essw	-13531
etri	-13532
ffic	-13533
hore	-13534
ince	-13535
inds	-13536
ipul	-13537
irds	-13538
irls	-13539
isce	-13540
nore	-13541
oods	-13542
orce	-13543
orri	-13544
plos	-13545
riat	-13546
roat	-13547
sess	-13548
stri	-13549
uess	-13550
urri	-13551
ushe	-13552
▁Ari	-13553
▁Mus	-13554
▁cro	-13555
▁fri	-13556
▁gri	-13557
▁shr	-13558
▁sku	-13559
MojRU	-13560
adled	-13561
eland	-13562
entri	-13563
essed	-13564
essly	-13565
essor	-13566
oetry	-13567
ogist	-13568
olden	-13569
olent	-13570
olved	-13571
olver	-13572
oment	-13573
omeon	-13574
onall	-13575
onded	-13576
oning	-13577
onsib	-13578
onver	-13579
ooler	-13580
ootst	-13581
ooves	-13582
opath	-13583
oping	-13584
opped	-13585
oreal	-13586
orear	-13587
orehe	-13588
orese	-13589
orest	-13590
orful	-13591
orine	-13592
orist	-13593
orite	-13594
orner	-13595
orror	-13596
orted	-13597
ortif	-13598
ortly	-13599
AfZ	-13600
Jji	-13601
aus	-13602
bro	-13603
cil	-13604
gil	-13605
ilk	-13606
kro	-13607
pul	-13608
rof	-13609
roj	-13610
rox	-13611
sro	-13612
ssy	-13613
til	-13614
vil	-13615
yro	-13616
zCh	-13617
▁FU	-13618
▁YO	-13619
▁Yo	-13620
Cast	-13621
Dust	-13622
Last	-13623
Must	-13624
Past	-13625
Prom	-13626
Year	-13627
amil	-13628
arry	-13629
astr	-13630
asts	-13631
aust	-13632
earc	-13633
edro	-13634
etro	-13635
herr	-13636
ible	-13637
ilen	-13638
ilit	-13639
irro	-13640
kway	-13641
lame	-13642
last	-13643
oast	-13644
oodr	-13645
ownt	-13646
pear	-13647
roid	-13648
roke	-13649
roma	-13650
romp	-13651
rose	-13652
rust	-13653
sher	-13654
ulth	-13655
usta	-13656
usty	-13657
▁Gen	-13658
▁ada	-13659
▁atm	-13660
▁deh	-13661
▁ema	-13662
▁fry	-13663
▁nuc	-13664
▁sap	-13665
aping	-13666
astar	-13667
asted	-13668
atast	-13669
early	-13670
error	-13671
etals	-13672
herds	-13673
herit	-13674
ifull	-13675
ingul	-13676
ipate	-13677
ndust	-13678
osely	-13679
otall	-13680
otato	-13681
otect	-13682
otent	-13683
otest	-13684
oting	-13685
otion	-13686
otout	-13687
otter	-13688
ottle	-13689
ounds	-13690
ouple	-13691
ource	-13692
ourit	-13693
ousin	-13694
overy	-13695
owers	-13696
pared	-13697
pital	-13698
pness	-13699
Del	-13700
Xpp	-13701
auc	-13702
eli	-13703
fth	-13704
ilu	-13705
ipp	-13706
lue	-13707
mth	-13708
oil	-13709
pil	-13710
ppy	-13711
pth	-13712
tho	-13713
uch	-13714
upp	-13715
wil	-13716
ych	-13717
yth	-13718
▁11	-13719
▁Ct	-13720
▁Cu	-13721
▁FI	-13722
▁FR	-13723
▁Fi	-13724
▁Fo	-13725
▁Fr	-13726
▁Fu	-13727
▁Op	-13728
acil	-13729
ardi	-13730
chas	-13731
chor	-13732
corp	-13733
died	-13734
eone	-13735
erch	-13736
fort	-13737
helf	-13738
idth	-13739
irth	-13740
licy	-13741
lots	-13742
onth	-13743
orth	-13744
phed	-13745
ppor	-13746
ppre	-13747
thly	-13748
▁Cam	-13749
▁Cly	-13750
▁Fir	-13751
▁Fou	-13752
▁Fre	-13753
▁Pac	-13754
▁Wil	-13755
▁chi	-13756
▁chl	-13757
▁fau	-13758
▁kil	-13759
▁nea	-13760
▁nec	-13761
▁nex	-13762
amble	-13763
arble	-13764
fines	-13765
icted	-13766
ilent	-13767
ilver	-13768
otted	-13769
ourse	-13770
pleas	-13771
ppare	-13772
ppear	-13773
pport	-13774
ppose	-13775
ptain	-13776
pting	-13777
quest	-13778
quish	-13779
raved	-13780
ravel	-13781
rayal	-13782
reall	-13783
reams	-13784
reamt	-13785
reamw	-13786
reats	-13787
reced	-13788
redat	-13789
redic	-13790
rever	-13791
riers	-13792
rigin	-13793
riter	-13794
riven	-13795
romis	-13796
ronau	-13797
roper	-13798
sions	-13799
Gum	-13800
Opp	-13801
Vpl	-13802
cti	-13803
cum	-13804
epp	-13805
fum	-13806
gum	-13807
jum	-13808
plV	-13809
ppT	-13810
ppa	-13811
qum	-13812
rum	-13813
umm	-13814
ums	-13815
xDS	-13816
▁MC	-13817
▁ME	-13818
▁Ma	-13819
▁Mc	-13820
▁Mi	-13821
▁YW	-13822
Jack	-13823
acka	-13824
ackg	-13825
ackl	-13826
ackn	-13827
acks	-13828
ersh	-13829
ersp	-13830
esum	-13831
grou	-13832
hant	-13833
heck	-13834
hrou	-13835
jack	-13836
kers	-13837
mack	-13838
nack	-13839
nile	-13840
onum	-13841
pply	-13842
ppur	-13843
ptly	-13844
reep	-13845
resh	-13846
roub	-13847
rout	-13848
ssen	-13849
tone	-13850
ueen	-13851
umor	-13852
umpt	-13853
utum	-13854
wake	-13855
xRFj	-13856
yfLX	-13857
▁Mad	-13858
▁Mer	-13859
▁Mid	-13860
▁Mor	-13861
▁ali	-13862
▁awa	-13863
▁bum	-13864
▁dum	-13865
acker	-13866
aight	-13867
arket	-13868
ayers	-13869
cting	-13870
enage	-13871
erson	-13872
illum	-13873
isual	-13874
owder	-13875
range	-13876
ssure	-13877
stain	-13878
stall	-13879
stems	-13880
sting	-13881
stion	-13882
store	-13883
stral	-13884
tents	-13885
terfl	-13886
thers	-13887
toire	-13888
uaded	-13889
uises	-13890
uline	-13891
ulled	-13892
ummer	-13893
unchl	-13894
unity	-13895
unset	-13896
urity	-13897
urnam	-13898
urple	-13899
Rus	-13900
Vtr	-13901
beP	-13902
efe	-13903
jcW	-13904
lus	-13905
rus	-13906
tus	-13907
usa	-13908
usc	-13909
usi	-13910
usk	-13911
uss	-13912
▁je	-13913
2439	-13914
None	-13915
atem	-13916
ectr	-13917
embe	-13918
fant	-13919
fere	-13920
hate	-13921
irus	-13922
isus	-13923
late	-13924
lege	-13925
lone	-13926
ntab	-13927
oone	-13928
pate	-13929
rate	-13930
requ	-13931
rius	-13932
rone	-13933
tate	-13934
uate	-13935
usin	-13936
usse	-13937
vate	-13938
yone	-13939
▁Fus	-13940
▁Sus	-13941
▁jer	-13942
▁mak	-13943
Every	-13944
Light	-13945
Night	-13946
Right	-13947
amine	-13948
arate	-13949
ateur	-13950
avery	-13951
erate	-13952
herry	-13953
ighty	-13954
ilate	-13955
ivion	-13956
lical	-13957
llets	-13958
lways	-13959
onely	-13960
orway	-13961
reate	-13962
riate	-13963
there	-13964
unate	-13965
urate	-13966
urrou	-13967
urten	-13968
ushes	-13969
ussia	-13970
ustav	-13971
usted	-13972
ustic	-13973
ustle	-13974
utile	-13975
uture	-13976
veins	-13977
velve	-13978
venty	-13979
verhe	-13980
veric	-13981
veryb	-13982
veryd	-13983
veryw	-13984
vtalP	-13985
wless	-13986
xfAiP	-13987
yment	-13988
yrann	-13989
▁**15	-13990
▁**23	-13991
▁**33	-13992
▁Alum	-13993
▁Amaz	-13994
▁Aust	-13995
▁Bann	-13996
▁Bear	-13997
▁Cand	-13998
▁Chie	-13999
Wel	-14000
ckl	-14001
ckn	-14002
ckw	-14003
cky	-14004
eck	-14005
ela	-14006
elh	-14007
sBi	-14008
tGq	-14009
tty	-14010
uel	-14011
▁1,	-14012
▁NO	-14013
▁NP	-14014
▁NS	-14015
▁Na	-14016
▁vE	-14017
▁vi	-14018
DnIu	-14019
Gand	-14020
Land	-14021
TFXv	-14022
XiBi	-14023
adel	-14024
andf	-14025
andh	-14026
andw	-14027
anel	-14028
cker	-14029
ckro	-14030
elhi	-14031
icol	-14032
imel	-14033
isky	-14034
mand	-14035
onsi	-14036
pand	-14037
rand	-14038
rops	-14039
seco	-14040
tand	-14041
xand	-14042
▁McQ	-14043
▁Nar	-14044
▁Nat	-14045
▁Ner	-14046
▁Nic	-14047
▁Nin	-14048
▁abh	-14049
▁abl	-14050
▁abo	-14051
▁abr	-14052
▁abu	-14053
▁aby	-14054
▁amp	-14055
▁fel	-14056
▁kni	-14057
▁kno	-14058
▁knu	-14059
▁val	-14060
▁vam	-14061
▁ven	-14062
RANDU	-14063
anded	-14064
andle	-14065
cture	-14066
imest	-14067
rself	-14068
tches	-14069
upted	-14070
▁Chin	-14071
▁Choo	-14072
▁Cost	-14073
▁Flor	-14074
▁Fren	-14075
▁Guer	-14076
▁Hand	-14077
▁Indi	-14078
▁Main	-14079
▁MarC	-14080
▁Part	-14081
▁Prom	-14082
▁Seco	-14083
▁Sink	-14084
▁Stan	-14085
▁Stat	-14086
▁Stre	-14087
▁Than	-14088
▁Thei	-14089
▁Thin	-14090
▁Thir	-14091
▁Thou	-14092
▁Thre	-14093
▁Tire	-14094
▁Unit	-14095
▁Virg	-14096
▁VsEV	-14097
▁Wait	-14098
▁Whic	-14099
DZj	-14100
Jol	-14101
Que	-14102
aks	-14103
lau	-14104
▁Ed	-14105
▁El	-14106
▁Es	-14107
▁Li	-14108
▁Lu	-14109
▁vf	-14110
Good	-14111
GsKs	-14112
Rest	-14113
cide	-14114
esta	-14115
esti	-14116
estl	-14117
estr	-14118
ests	-14119
ildh	-14120
ivat	-14121
jout	-14122
kest	-14123
lick	-14124
lide	-14125
lood	-14126
lory	-14127
oodD	-14128
oody	-14129
pest	-14130
plac	-14131
raph	-14132
ride	-14133
sest	-14134
test	-14135
vide	-14136
west	-14137
▁Dar	-14138
▁Dor	-14139
▁Dre	-14140
▁Dur	-14141
▁Eac	-14142
▁Ear	-14143
▁Lad	-14144
▁Lar	-14145
▁Lon	-14146
▁Lor	-14147
▁ful	-14148
▁ide	-14149
▁nob	-14150
▁nod	-14151
▁vic	-14152
▁vin	-14153
atest	-14154
ceive	-14155
ctory	-14156
eddit	-14157
eside	-14158
estin	-14159
estor	-14160
ldest	-14161
ooden	-14162
outin	-14163
rehen	-14164
table	-14165
tched	-14166
urbid	-14167
urves	-14168
▁Lear	-14169
▁Wing	-14170
▁Writ	-14171
▁abil	-14172
▁abou	-14173
▁abru	-14174
▁acce	-14175
▁acro	-14176
▁agon	-14177
▁agre	-14178
▁alar	-14179
▁alre	-14180
▁amou	-14181
▁anar	-14182
▁anci	-14183
▁anot	-14184
▁anym	-14185
▁anyw	-14186
▁appr	-14187
▁arou	-14188
▁ashe	-14189
▁asid	-14190
▁asle	-14191
▁asse	-14192
▁athe	-14193
▁beac	-14194
▁bead	-14195
▁beam	-14196
▁beas	-14197
▁beck	-14198
▁bell	-14199
00-	-14200
300	-14201
Jul	-14202
Opt	-14203
eci	-14204
mpt	-14205
mul	-14206
pta	-14207
pti	-14208
pty	-14209
ssu	-14210
upt	-14211
▁Pr	-14212
crit	-14213
dorn	-14214
emin	-14215
gant	-14216
iant	-14217
icul	-14218
ilte	-14219
isto	-14220
lime	-14221
lour	-14222
lped	-14223
omew	-14224
plan	-14225
pril	-14226
ptom	-14227
rept	-14228
rime	-14229
riti	-14230
ritt	-14231
ssro	-14232
tant	-14233
trit	-14234
ulan	-14235
ulat	-14236
ulin	-14237
want	-14238
▁Log	-14239
▁Par	-14240
▁Pat	-14241
▁Pit	-14242
▁Ple	-14243
▁Pon	-14244
▁alc	-14245
▁als	-14246
▁bul	-14247
▁lea	-14248
▁lee	-14249
▁lef	-14250
▁lov	-14251
▁sup	-14252
▁upl	-14253
▁ups	-14254
▁upw	-14255
acant	-14256
adway	-14257
agine	-14258
antis	-14259
artic	-14260
ctric	-14261
ellad	-14262
erged	-14263
icant	-14264
itant	-14265
llway	-14266
olted	-14267
omant	-14268
onome	-14269
ritic	-14270
ssing	-14271
ssion	-14272
ulter	-14273
veway	-14274
▁CENT	-14275
▁Pear	-14276
▁Trit	-14277
▁alon	-14278
▁alri	-14279
▁alth	-14280
▁bigg	-14281
▁blan	-14282
▁blin	-14283
▁boar	-14284
▁bott	-14285
▁brus	-14286
▁butt	-14287
▁calc	-14288
▁cany	-14289
▁carb	-14290
▁cate	-14291
▁caus	-14292
▁chan	-14293
▁chas	-14294
▁chor	-14295
▁chun	-14296
▁chur	-14297
▁clan	-14298
▁clic	-14299
EVX	-14300
Gem	-14301
Pbt	-14302
ZJj	-14303
aka	-14304
akf	-14305
akn	-14306
cra	-14307
eak	-14308
emb	-14309
hif	-14310
mem	-14311
oak	-14312
rah	-14313
ssb	-14314
tak	-14315
tem	-14316
zem	-14317
▁UP	-14318
'...	-14319
Kind	-14320
adem	-14321
aker	-14322
amef	-14323
apon	-14324
arti	-14325
artm	-14326
bies	-14327
blec	-14328
edge	-14329
emis	-14330
enem	-14331
fist	-14332
gart	-14333
gean	-14334
idge	-14335
iesc	-14336
kies	-14337
mble	-14338
mies	-14339
mind	-14340
oard	-14341
orge	-14342
oura	-14343
rait	-14344
rena	-14345
sass	-14346
sses	-14347
ssom	-14348
stem	-14349
urge	-14350
vies	-14351
wart	-14352
wist	-14353
▁Jul	-14354
▁Wra	-14355
▁exe	-14356
▁pra	-14357
▁sud	-14358
▁suf	-14359
▁wak	-14360
▁zom	-14361
akers	-14362
arten	-14363
cepts	-14364
emies	-14365
eties	-14366
ettle	-14367
ignal	-14368
istan	-14369
nolog	-14370
roble	-14371
ropon	-14372
umble	-14373
▁Heis	-14374
▁Hell	-14375
▁clot	-14376
▁clut	-14377
▁coil	-14378
▁comb	-14379
▁conc	-14380
▁cram	-14381
▁cran	-14382
▁cree	-14383
▁dapp	-14384
▁dart	-14385
▁deat	-14386
▁dece	-14387
▁deem	-14388
▁defa	-14389
▁defi	-14390
▁dele	-14391
▁deve	-14392
▁dipl	-14393
▁disa	-14394
▁disp	-14395
▁disr	-14396
▁diss	-14397
▁doct	-14398
▁doll	-14399
0-2	-14400
Nos	-14401
aqu	-14402
dox	-14403
rms	-14404
VUIs	-14405
anqu	-14406
asqu	-14407
each	-14408
full	-14409
isti	-14410
istw	-14411
lous	-14412
mits	-14413
oist	-14414
onqu	-14415
quen	-14416
ques	-14417
quis	-14418
yous	-14419
▁Gos	-14420
▁ama	-14421
▁amb	-14422
▁blo	-14423
▁equ	-14424
▁exh	-14425
▁plu	-14426
▁qua	-14427
▁sau	-14428
▁spi	-14429
▁spo	-14430
▁spr	-14431
▁vie	-14432
addam	-14433
aints	-14434
amous	-14435
areer	-14436
arken	-14437
elief	-14438
esist	-14439
ffair	-14440
geous	-14441
hTUaT	-14442
irely	-14443
istak	-14444
isten	-14445
istin	-14446
iston	-14447
istur	-14448
onous	-14449
quent	-14450
quies	-14451
treat	-14452
udden	-14453
unism	-14454
▁Caes	-14455
▁Cous	-14456
▁Hous	-14457
▁amon	-14458
▁blad	-14459
▁blow	-14460
▁blur	-14461
▁boil	-14462
▁doom	-14463
▁dran	-14464
▁drap	-14465
▁dron	-14466
▁drun	-14467
▁earn	-14468
▁elep	-14469
▁enou	-14470
▁eter	-14471
▁exac	-14472
▁exce	-14473
▁exot	-14474
▁exte	-14475
▁fain	-14476
▁fanf	-14477
▁fant	-14478
▁figu	-14479
▁flas	-14480
▁flav	-14481
▁flou	-14482
▁flun	-14483
▁forc	-14484
▁fork	-14485
▁fort	-14486
▁forw	-14487
▁fren	-14488
▁fres	-14489
▁fron	-14490
▁gear	-14491
▁gent	-14492
▁glan	-14493
▁glor	-14494
▁goat	-14495
▁grou	-14496
▁gunp	-14497
▁haun	-14498
▁heel	-14499
JHz	-14500
Rep	-14501
Unt	-14502
bie	-14503
eep	-14504
fie	-14505
iev	-14506
ifu	-14507
izb	-14508
ntl	-14509
ntr	-14510
pol	-14511
▁Ge	-14512
▁Ob	-14513
▁Od	-14514
acif	-14515
angu	-14516
assy	-14517
brid	-14518
chen	-14519
chie	-14520
cise	-14521
elie	-14522
ends	-14523
eply	-14524
epop	-14525
gine	-14526
hedr	-14527
heep	-14528
hens	-14529
iffe	-14530
ifth	-14531
irem	-14532
keep	-14533
ldie	-14534
lias	-14535
mong	-14536
nake	-14537
ntic	-14538
ntly	-14539
olve	-14540
ooks	-14541
pair	-14542
rass	-14543
rong	-14544
stig	-14545
tong	-14546
uang	-14547
▁Egg	-14548
▁Ger	-14549
▁Opt	-14550
▁Pie	-14551
▁fie	-14552
▁uni	-14553
▁wie	-14554
GMHZU	-14555
achut	-14556
asual	-14557
entry	-14558
hingn	-14559
hingt	-14560
issil	-14561
ndown	-14562
onged	-14563
osity	-14564
phing	-14565
reely	-14566
ushed	-14567
▁Gust	-14568
▁cove	-14569
▁craw	-14570
▁crun	-14571
▁dise	-14572
▁flam	-14573
▁flar	-14574
▁fles	-14575
▁helm	-14576
▁herd	-14577
▁hist	-14578
▁hone	-14579
▁hook	-14580
▁hous	-14581
▁howe	-14582
▁impr	-14583
▁ineb	-14584
▁inhe	-14585
▁intr	-14586
▁issu	-14587
▁itse	-14588
▁jack	-14589
▁jour	-14590
▁lear	-14591
▁lege	-14592
▁leve	-14593
▁ligh	-14594
▁link	-14595
▁liqu	-14596
▁loat	-14597
▁loom	-14598
▁lung	-14599
**1	-14600
Coy	-14601
YYv	-14602
cco	-14603
cog	-14604
dlI	-14605
eco	-14606
gry	-14607
hap	-14608
lfs	-14609
oap	-14610
pap	-14611
vap	-14612
xpl	-14613
zAn	-14614
AeFJ	-14615
apes	-14616
apit	-14617
arag	-14618
arks	-14619
card	-14620
cond	-14621
ickl	-14622
inks	-14623
iren	-14624
isco	-14625
lfis	-14626
llip	-14627
mark	-14628
olat	-14629
ratc	-14630
reci	-14631
rink	-14632
sure	-14633
turn	-14634
urns	-14635
urry	-14636
wink	-14637
yard	-14638
zine	-14639
▁Cap	-14640
▁cof	-14641
▁coy	-14642
▁obe	-14643
▁rap	-14644
▁scr	-14645
arder	-14646
arved	-14647
asses	-14648
edure	-14649
heels	-14650
ieved	-14651
inkly	-14652
ndril	-14653
nless	-14654
pture	-14655
reath	-14656
reati	-14657
roved	-14658
ultan	-14659
▁100-	-14660
▁alco	-14661
▁bond	-14662
▁boot	-14663
▁conn	-14664
▁cons	-14665
▁disb	-14666
▁gard	-14667
▁heap	-14668
▁mana	-14669
▁mani	-14670
▁mank	-14671
▁mann	-14672
▁mans	-14673
▁masc	-14674
▁maud	-14675
▁meas	-14676
▁mech	-14677
▁ment	-14678
▁midd	-14679
▁mock	-14680
▁mone	-14681
▁muff	-14682
▁myri	-14683
▁myse	-14684
▁myst	-14685
▁nast	-14686
▁neat	-14687
▁nect	-14688
▁neur	-14689
▁newb	-14690
▁nodd	-14691
▁nois	-14692
▁nood	-14693
▁noth	-14694
▁nove	-14695
▁occu	-14696
▁oran	-14697
▁orde	-14698
▁outc	-14699
**2	-14700
**6	-14701
Anb	-14702
KCY	-14703
SgU	-14704
WAY	-14705
aga	-14706
oli	-14707
olo	-14708
qcY	-14709
sol	-14710
zUp	-14711
▁RI	-14712
▁ig	-14713
acef	-14714
bell	-14715
btle	-14716
chol	-14717
elli	-14718
ello	-14719
elly	-14720
enag	-14721
ftly	-14722
give	-14723
nity	-14724
onol	-14725
orte	-14726
pell	-14727
race	-14728
ruck	-14729
sive	-14730
sort	-14731
tive	-14732
umbe	-14733
vens	-14734
weat	-14735
▁Col	-14736
▁Rin	-14737
▁Rot	-14738
▁hol	-14739
▁unb	-14740
▁unk	-14741
▁unp	-14742
▁vol	-14743
achhe	-14744
ality	-14745
amour	-14746
anity	-14747
arach	-14748
arity	-14749
attle	-14750
choed	-14751
crite	-14752
ddict	-14753
efore	-14754
istol	-14755
leven	-14756
ortur	-14757
ptive	-14758
quell	-14759
usive	-14760
utive	-14761
▁Fort	-14762
▁Port	-14763
▁Whit	-14764
▁bree	-14765
▁clas	-14766
▁emit	-14767
▁outh	-14768
▁outl	-14769
▁outn	-14770
▁outp	-14771
▁outr	-14772
▁outs	-14773
▁pant	-14774
▁peac	-14775
▁peop	-14776
▁peri	-14777
▁phot	-14778
▁ping	-14779
▁plac	-14780
▁plun	-14781
▁poet	-14782
▁poin	-14783
▁pois	-14784
▁poss	-14785
▁prou	-14786
▁purg	-14787
▁rack	-14788
▁rand	-14789
▁reac	-14790
▁reap	-14791
▁redd	-14792
▁reel	-14793
▁rele	-14794
▁remo	-14795
▁rent	-14796
▁rere	-14797
▁roam	-14798
▁root	-14799
DED	-14800
EYJ	-14801
OZL	-14802
aft	-14803
igi	-14804
igu	-14805
ipl	-14806
liv	-14807
oig	-14808
pJD	-14809
pli	-14810
rue	-14811
sVU	-14812
sig	-14813
aciz	-14814
aliz	-14815
aniz	-14816
assp	-14817
cade	-14818
ften	-14819
hild	-14820
igen	-14821
inue	-14822
ireb	-14823
iret	-14824
izar	-14825
izen	-14826
lass	-14827
lves	-14828
ompl	-14829
oriz	-14830
plis	-14831
raft	-14832
rick	-14833
rift	-14834
sane	-14835
tile	-14836
ucle	-14837
umbl	-14838
umpl	-14839
▁Giz	-14840
▁Stu	-14841
▁siz	-14842
▁smi	-14843
▁smu	-14844
▁syn	-14845
▁tru	-14846
anges	-14847
assac	-14848
assin	-14849
child	-14850
erves	-14851
igent	-14852
ipher	-14853
irear	-14854
irect	-14855
izing	-14856
place	-14857
plain	-14858
▁Alth	-14859
▁Inth	-14860
▁Mass	-14861
▁Stor	-14862
▁disu	-14863
▁kick	-14864
▁pris	-14865
▁proc	-14866
▁runa	-14867
▁salt	-14868
▁saus	-14869
▁scal	-14870
▁scat	-14871
▁seet	-14872
▁sele	-14873
▁sere	-14874
▁serv	-14875
▁sett	-14876
▁seve	-14877
▁shac	-14878
▁sham	-14879
▁shap	-14880
▁shar	-14881
▁shat	-14882
▁shie	-14883
▁shim	-14884
▁shin	-14885
▁shir	-14886
▁shon	-14887
▁shor	-14888
▁shou	-14889
▁simm	-14890
▁simp	-14891
▁sine	-14892
▁sinn	-14893
▁sire	-14894
▁skyw	-14895
▁slat	-14896
▁slau	-14897
▁slic	-14898
▁slim	-14899
agg	-14900
aug	-14901
bab	-14902
bau	-14903
gag	-14904
mYY	-14905
mbe	-14906
plo	-14907
ampl	-14908
ares	-14909
arew	-14910
bour	-14911
eath	-14912
ecti	-14913
ffer	-14914
fice	-14915
hyth	-14916
icea	-14917
iceb	-14918
imag	-14919
lice	-14920
onau	-14921
quaw	-14922
ribe	-14923
robe	-14924
sile	-14925
site	-14926
tice	-14927
tose	-14928
umbs	-14929
vour	-14930
ware	-14931
xile	-14932
▁Unt	-14933
▁que	-14934
Kings	-14935
ackag	-14936
acted	-14937
amber	-14938
anger	-14939
arely	-14940
artbe	-14941
enact	-14942
essag	-14943
itely	-14944
kways	-14945
lands	-14946
oudly	-14947
ouris	-14948
quare	-14949
thern	-14950
therw	-14951
ueber	-14952
ullet	-14953
wings	-14954
▁Chan	-14955
▁Kill	-14956
▁cact	-14957
▁cras	-14958
▁cris	-14959
▁dram	-14960
▁gett	-14961
▁glid	-14962
▁hots	-14963
▁mour	-14964
▁pare	-14965
▁perh	-14966
▁quen	-14967
▁quer	-14968
▁quit	-14969
▁sapl	-14970
▁slit	-14971
▁slop	-14972
▁smil	-14973
▁soap	-14974
▁soar	-14975
▁soot	-14976
▁spac	-14977
▁span	-14978
▁spid	-14979
▁spin	-14980
▁spir	-14981
▁spon	-14982
▁spre	-14983
▁sput	-14984
▁stal	-14985
▁stat	-14986
▁stem	-14987
▁stic	-14988
▁stol	-14989
▁ston	-14990
▁stoo	-14991
▁stor	-14992
▁stru	-14993
▁suck	-14994
▁suic	-14995
▁suns	-14996
▁surf	-14997
▁surg	-14998
▁swit	-14999
Los	-15000
ipe	-15001
jPr	-15002
pos	-15003
ruH	-15004
ynC	-15005
ansl	-15006
ansm	-15007
ansp	-15008
answ	-15009
iped	-15010
ipes	-15011
itos	-15012
lans	-15013
lorn	-15014
ornf	-15015
pise	-15016
ppos	-15017
reng	-15018
thoE	-15019
uths	-15020
wise	-15021
▁Rog	-15022
▁enc	-15023
▁gla	-15024
▁hos	-15025
ablec	-15026
ablet	-15027
alise	-15028
alted	-15029
apole	-15030
asons	-15031
emise	-15032
etect	-15033
hable	-15034
hless	-15035
hness	-15036
ipers	-15037
lessn	-15038
nable	-15039
nderg	-15040
nderm	-15041
nderw	-15042
onaut	-15043
onder	-15044
osest	-15045
osing	-15046
perat	-15047
perim	-15048
renad	-15049
renal	-15050
renck	-15051
umans	-15052
under	-15053
vable	-15054
veloc	-15055
▁appo	-15056
▁chos	-15057
▁enam	-15058
▁ener	-15059
▁glar	-15060
▁glit	-15061
▁hans	-15062
▁hidd	-15063
▁shep	-15064
▁tast	-15065
▁teac	-15066
▁thei	-15067
▁ther	-15068
▁thes	-15069
▁thic	-15070
▁thin	-15071
▁thre	-15072
▁thri	-15073
▁tool	-15074
▁toss	-15075
▁trac	-15076
▁tran	-15077
▁tras	-15078
▁trit	-15079
▁trun	-15080
▁trut	-15081
▁twel	-15082
▁twil	-15083
▁twir	-15084
▁uhhh	-15085
▁unan	-15086
▁unke	-15087
▁vall	-15088
▁vent	-15089
▁vide	-15090
▁waft	-15091
▁wank	-15092
▁watc	-15093
▁weap	-15094
▁weat	-15095
▁weir	-15096
▁whic	-15097
▁whif	-15098
▁whin	-15099
HRx	-15100
Rhp	-15101
ddi	-15102
ddl	-15103
efc	-15104
jTc	-15105
odd	-15106
ody	-15107
udd	-15108
avem	-15109
awed	-15110
ddic	-15111
dequ	-15112
dhes	-15113
eave	-15114
fied	-15115
hene	-15116
ifte	-15117
inta	-15118
irte	-15119
ishf	-15120
itte	-15121
itty	-15122
mish	-15123
tely	-15124
then	-15125
uish	-15126
unte	-15127
utte	-15128
▁Bey	-15129
▁acc	-15130
43908	-15131
YYvMJ	-15132
acade	-15133
arade	-15134
chief	-15135
ddent	-15136
ddies	-15137
eated	-15138
erade	-15139
fterw	-15140
iated	-15141
ichen	-15142
inish	-15143
inted	-15144
lfish	-15145
ourte	-15146
owave	-15147
perfe	-15148
plied	-15149
plish	-15150
rance	-15151
rated	-15152
renia	-15153
uated	-15154
uried	-15155
urled	-15156
▁Shir	-15157
▁Styg	-15158
▁atte	-15159
▁bran	-15160
▁godd	-15161
▁howl	-15162
▁offl	-15163
▁rank	-15164
▁remn	-15165
▁spec	-15166
▁swif	-15167
▁swor	-15168
▁whir	-15169
▁whis	-15170
▁whit	-15171
▁whol	-15172
▁wing	-15173
▁wire	-15174
▁worr	-15175
▁wort	-15176
▁youn	-15177
ChIiib	-15178
EVXrgT	-15179
MBbean	-15180
OOVSBZ	-15181
Ration	-15182
WaAgql	-15183
YVEYJj	-15184
ZCtYhj	-15185
aceful	-15186
achine	-15187
ackets	-15188
ackout	-15189
acters	-15190
actice	-15191
action	-15192
active	-15193
acture	-15194
adness	-15195
agical	-15196
ainten	-15197
ainter	-15198
akness	-15199
Lff	-15200
SJZ	-15201
abr	-15202
aff	-15203
cab	-15204
ffo	-15205
sms	-15206
zZn	-15207
Anbz	-15208
KyQk	-15209
abit	-15210
cled	-15211
erab	-15212
ffir	-15213
ffor	-15214
ginn	-15215
inab	-15216
rofo	-15217
stab	-15218
zles	-15219
▁Aff	-15220
▁Art	-15221
▁Bab	-15222
▁bab	-15223
▁eff	-15224
▁foc	-15225
▁qed	-15226
break	-15227
estab	-15228
ffort	-15229
gence	-15230
imple	-15231
irled	-15232
itude	-15233
omple	-15234
ooled	-15235
owled	-15236
reakd	-15237
reakf	-15238
sence	-15239
thday	-15240
tions	-15241
ullab	-15242
unchy	-15243
undan	-15244
urday	-15245
vents	-15246
vious	-15247
▁Dinn	-15248
▁Mund	-15249
▁Talk	-15250
▁Winn	-15251
▁appe	-15252
▁betr	-15253
▁betw	-15254
▁desc	-15255
▁desi	-15256
▁dinn	-15257
▁foll	-15258
▁fond	-15259
▁froz	-15260
▁prob	-15261
▁prod	-15262
▁prog	-15263
▁proj	-15264
▁warn	-15265
alance	-15266
alized	-15267
alking	-15268
allest	-15269
alling	-15270
allous	-15271
allout	-15272
allway	-15273
ameful	-15274
ampire	-15275
ancher	-15276
anging	-15277
anking	-15278
antasy	-15279
apable	-15280
approp	-15281
arched	-15282
arines	-15283
arious	-15284
arkest	-15285
armony	-15286
arrass	-15287
arship	-15288
arther	-15289
arthly	-15290
arview	-15291
arving	-15292
ashing	-15293
assion	-15294
astard	-15295
asting	-15296
asures	-15297
athing	-15298
ayered	-15299
JWv	-15300
Siv	-15301
btf	-15302
dex	-15303
eAV	-15304
ffs	-15305
ivb	-15306
ivi	-15307
viv	-15308
▁Kh	-15309
▁iv	-15310
LsBi	-15311
cipl	-15312
crem	-15313
cret	-15314
ctiv	-15315
deed	-15316
ecre	-15317
erci	-15318
fict	-15319
gary	-15320
inci	-15321
ival	-15322
ivil	-15323
ivin	-15324
ivor	-15325
mary	-15326
mber	-15327
mper	-15328
nces	-15329
oliv	-15330
rigg	-15331
scre	-15332
urde	-15333
yees	-15334
▁psy	-15335
▁tex	-15336
▁viv	-15337
berri	-15338
blems	-15339
cared	-15340
ccess	-15341
ciate	-15342
enber	-15343
ffice	-15344
ffing	-15345
ggest	-15346
gging	-15347
ggled	-15348
ivers	-15349
ivine	-15350
liver	-15351
uised	-15352
ulary	-15353
umber	-15354
zzles	-15355
▁Bean	-15356
▁burg	-15357
▁fict	-15358
▁rede	-15359
▁soci	-15360
▁tech	-15361
▁teem	-15362
▁teet	-15363
▁tend	-15364
▁utop	-15365
aiming	-15366
ampion	-15367
bidden	-15368
ceptac	-15369
cerous	-15370
cident	-15371
ckless	-15372
covers	-15373
covery	-15374
ctions	-15375
cument	-15376
ecting	-15377
ection	-15378
ective	-15379
edside	-15380
eeping	-15381
elight	-15382
elings	-15383
enance	-15384
enario	-15385
enberg	-15386
ensing	-15387
entall	-15388
entary	-15389
enteen	-15390
enters	-15391
entine	-15392
enting	-15393
entire	-15394
entist	-15395
entity	-15396
entral	-15397
enying	-15398
erated	-15399
MRe	-15400
YDS	-15401
dia	-15402
ews	-15403
mia	-15404
ogs	-15405
ogy	-15406
xia	-15407
▁Jo	-15408
▁Ko	-15409
▁Qu	-15410
ADNZ	-15411
Vict	-15412
alia	-15413
appr	-15414
arsh	-15415
edia	-15416
iPZC	-15417
lesh	-15418
nail	-15419
oget	-15420
ools	-15421
pert	-15422
perv	-15423
post	-15424
ucky	-15425
▁Hog	-15426
▁Jam	-15427
▁Jed	-15428
▁Jes	-15429
▁adj	-15430
▁laz	-15431
ables	-15432
arsal	-15433
epost	-15434
etail	-15435
ggles	-15436
hears	-15437
isage	-15438
ollow	-15439
oster	-15440
ostly	-15441
ounts	-15442
phere	-15443
readf	-15444
reads	-15445
rossb	-15446
ucked	-15447
ucker	-15448
urked	-15449
▁adop	-15450
▁buck	-15451
▁chee	-15452
▁chew	-15453
▁curs	-15454
▁gaun	-15455
▁host	-15456
▁lett	-15457
▁nail	-15458
▁sauc	-15459
▁spew	-15460
▁surp	-15461
ackage	-15462
ailure	-15463
erging	-15464
erious	-15465
erless	-15466
ersing	-15467
ersion	-15468
ersone	-15469
erving	-15470
ervous	-15471
esight	-15472
essage	-15473
essary	-15474
essing	-15475
ession	-15476
estart	-15477
estate	-15478
esting	-15479
estion	-15480
estles	-15481
estock	-15482
eteers	-15483
etness	-15484
etting	-15485
feated	-15486
fectly	-15487
ferior	-15488
fficer	-15489
forese	-15490
fortun	-15491
gation	-15492
geance	-15493
ghting	-15494
giving	-15495
gnized	-15496
heless	-15497
hering	-15498
hipped	-15499
BAf	-15500
BMD	-15501
avi	-15502
awb	-15503
hav	-15504
rud	-15505
spi	-15506
spo	-15507
yav	-15508
zeX	-15509
▁VW	-15510
PMmC	-15511
avag	-15512
aval	-15513
avig	-15514
eful	-15515
fold	-15516
fulf	-15517
irsp	-15518
ocks	-15519
ogra	-15520
resp	-15521
rize	-15522
ssib	-15523
▁1-8	-15524
▁191	-15525
▁cav	-15526
▁fav	-15527
▁paw	-15528
assem	-15529
atted	-15530
awing	-15531
chase	-15532
erced	-15533
erful	-15534
icism	-15535
nment	-15536
oreog	-15537
seful	-15538
spire	-15539
▁Afra	-15540
▁Cove	-15541
▁Mock	-15542
▁Reds	-15543
▁cruc	-15544
▁heav	-15545
▁sunr	-15546
▁unsp	-15547
Prompt	-15548
aucher	-15549
awless	-15550
cedent	-15551
iation	-15552
icants	-15553
iceber	-15554
ichest	-15555
iciary	-15556
icking	-15557
ickled	-15558
ickles	-15559
ictory	-15560
icture	-15561
ideous	-15562
idered	-15563
ideway	-15564
ientif	-15565
ierces	-15566
iewing	-15567
ifixes	-15568
ifting	-15569
ighten	-15570
ighway	-15571
ignore	-15572
igures	-15573
ilable	-15574
ilated	-15575
ilding	-15576
ilence	-15577
ilings	-15578
illage	-15579
illain	-15580
illies	-15581
illion	-15582
illust	-15583
iminis	-15584
inally	-15585
inated	-15586
inding	-15587
indled	-15588
inents	-15589
ingers	-15590
ingest	-15591
inging	-15592
inkled	-15593
intage	-15594
ionall	-15595
ionary	-15596
ioning	-15597
iously	-15598
irteen	-15599
AYk	-15600
ApW	-15601
Jru	-15602
msm	-15603
rug	-15604
sEV	-15605
yme	-15606
zkq	-15607
▁Ve	-15608
▁Vo	-15609
CIFo	-15610
alty	-15611
bors	-15612
crib	-15613
eems	-15614
erms	-15615
gian	-15616
heme	-15617
ilty	-15618
mely	-15619
orru	-15620
ruit	-15621
stru	-15622
▁Chr	-15623
▁Cru	-15624
▁Unc	-15625
▁Unl	-15626
▁wax	-15627
Cvren	-15628
alian	-15629
chors	-15630
edian	-15631
erior	-15632
escri	-15633
ilted	-15634
ivors	-15635
leeve	-15636
ourty	-15637
pened	-15638
pplic	-15639
terme	-15640
unted	-15641
▁Char	-15642
▁attr	-15643
▁evap	-15644
▁hors	-15645
▁musc	-15646
▁wrot	-15647
adical	-15648
eather	-15649
edical	-15650
essors	-15651
estors	-15652
gories	-15653
isable	-15654
isfied	-15655
ishful	-15656
istake	-15657
istant	-15658
istian	-15659
isting	-15660
istons	-15661
itable	-15662
italiz	-15663
itated	-15664
ithout	-15665
itness	-15666
itters	-15667
iversp	-15668
ivious	-15669
jected	-15670
joying	-15671
lation	-15672
lcomed	-15673
leaded	-15674
lement	-15675
leship	-15676
leting	-15677
lexand	-15678
lfless	-15679
lished	-15680
llowed	-15681
llways	-15682
macked	-15683
mories	-15684
morrow	-15685
ndless	-15686
necess	-15687
nition	-15688
nother	-15689
nticip	-15690
ntless	-15691
oating	-15692
ockwor	-15693
ocrite	-15694
ogical	-15695
ogists	-15696
oiding	-15697
olated	-15698
olding	-15699
9'.	-15700
AeF	-15701
Gqn	-15702
RIJ	-15703
Vey	-15704
XuQ	-15705
ibl	-15706
yAq	-15707
ybo	-15708
ybr	-15709
brac	-15710
bram	-15711
evel	-15712
ifts	-15713
lets	-15714
orbo	-15715
pels	-15716
rows	-15717
velo	-15718
▁awh	-15719
▁awo	-15720
▁bub	-15721
▁obl	-15722
ademy	-15723
arvel	-15724
blime	-15725
blish	-15726
brace	-15727
crets	-15728
epped	-15729
gress	-15730
ieces	-15731
merci	-15732
oards	-15733
ouseh	-15734
press	-15735
sevel	-15736
stead	-15737
tlets	-15738
ualiz	-15739
uards	-15740
▁**12	-15741
▁Amer	-15742
▁Nobo	-15743
▁arri	-15744
▁awes	-15745
▁buil	-15746
▁carg	-15747
▁curi	-15748
▁debr	-15749
▁drip	-15750
▁embo	-15751
▁ente	-15752
▁fami	-15753
▁impo	-15754
▁memb	-15755
▁prim	-15756
▁prop	-15757
▁sati	-15758
allows	-15759
atches	-15760
blical	-15761
enches	-15762
izards	-15763
oments	-15764
omeone	-15765
omited	-15766
onally	-15767
ondent	-15768
onding	-15769
onfire	-15770
ongest	-15771
onking	-15772
onored	-15773
oodbye	-15774
oodrow	-15775
ooking	-15776
ooming	-15777
ooting	-15778
ootout	-15779
operty	-15780
opical	-15781
orated	-15782
oreall	-15783
orever	-15784
orment	-15785
orning	-15786
orship	-15787
ortant	-15788
ortest	-15789
orther	-15790
orture	-15791
orways	-15792
otally	-15793
otherf	-15794
others	-15795
othing	-15796
otions	-15797
ouched	-15798
oulder	-15799
BCP	-15800
JcT	-15801
OUr	-15802
▁36	-15803
▁60	-15804
▁62	-15805
▁66	-15806
WPqW	-15807
aily	-15808
appl	-15809
appo	-15810
auty	-15811
cals	-15812
dily	-15813
eals	-15814
enef	-15815
fjrV	-15816
happ	-15817
iews	-15818
igno	-15819
igns	-15820
leef	-15821
lten	-15822
miss	-15823
ondL	-15824
onde	-15825
ormt	-15826
ormy	-15827
saic	-15828
sign	-15829
sult	-15830
uals	-15831
voke	-15832
wins	-15833
▁FUU	-15834
▁idi	-15835
▁rub	-15836
ATERS	-15837
acial	-15838
aired	-15839
autif	-15840
bject	-15841
ctron	-15842
erial	-15843
icial	-15844
ignat	-15845
igned	-15846
ignor	-15847
ikely	-15848
imals	-15849
imbed	-15850
irror	-15851
jecti	-15852
ombed	-15853
onses	-15854
onsid	-15855
reets	-15856
roken	-15857
spons	-15858
urial	-15859
xcept	-15860
▁Dapp	-15861
▁Kind	-15862
▁Lond	-15863
▁Madd	-15864
▁elim	-15865
▁kins	-15866
▁mult	-15867
▁nobo	-15868
▁norm	-15869
▁onbo	-15870
▁wond	-15871
angely	-15872
anized	-15873
appear	-15874
ectral	-15875
eneath	-15876
ialing	-15877
iewers	-15878
irborn	-15879
issile	-15880
ission	-15881
merica	-15882
ortals	-15883
ounder	-15884
ountab	-15885
ounted	-15886
ountry	-15887
ourage	-15888
ourish	-15889
ourist	-15890
ourite	-15891
ousand	-15892
outher	-15893
outine	-15894
owever	-15895
owsill	-15896
owsing	-15897
passed	-15898
pation	-15899
QWY	-15900
bwe	-15901
clu	-15902
hys	-15903
maz	-15904
qLi	-15905
qVS	-15906
web	-15907
Agmr	-15908
agaz	-15909
amps	-15910
azed	-15911
azem	-15912
bidd	-15913
clus	-15914
cord	-15915
dlIo	-15916
etwe	-15917
fron	-15918
hyme	-15919
olly	-15920
oncl	-15921
oops	-15922
raps	-15923
rowa	-15924
▁Atl	-15925
▁daz	-15926
answe	-15927
arrow	-15928
azine	-15929
azing	-15930
bbers	-15931
clock	-15932
errif	-15933
etron	-15934
farew	-15935
fectu	-15936
ffect	-15937
gular	-15938
icrow	-15939
ieter	-15940
limin	-15941
mises	-15942
oever	-15943
stron	-15944
tains	-15945
urrow	-15946
vinci	-15947
▁Atom	-15948
▁Brut	-15949
▁Dece	-15950
▁Dron	-15951
▁Feel	-15952
▁clea	-15953
▁cres	-15954
▁dehy	-15955
▁malf	-15956
▁putr	-15957
▁redu	-15958
▁voic	-15959
astron	-15960
earned	-15961
edited	-15962
enital	-15963
erhaps	-15964
ielded	-15965
ordial	-15966
pening	-15967
plains	-15968
pother	-15969
ptable	-15970
rafted	-15971
rafter	-15972
raight	-15973
raphed	-15974
rapped	-15975
rasted	-15976
raving	-15977
reamed	-15978
reated	-15979
reaten	-15980
reater	-15981
reathe	-15982
reativ	-15983
reator	-15984
reched	-15985
redict	-15986
renald	-15987
rength	-15988
rently	-15989
ribble	-15990
ricity	-15991
ripped	-15992
riters	-15993
ritten	-15994
rocess	-15995
romise	-15996
rorist	-15997
rossed	-15998
rossro	-15999
BQG	-16000
Xvi	-16001
bky	-16002
clL	-16003
eys	-16004
mph	-16005
ney	-16006
rsI	-16007
zDn	-16008
▁42	-16009
▁48	-16010
ampf	-16011
comp	-16012
dels	-16013
efly	-16014
erpr	-16015
oked	-16016
rief	-16017
▁Sho	-16018
▁Spr	-16019
alZXZ	-16020
amili	-16021
anels	-16022
ewels	-16023
inesc	-16024
ldier	-16025
qVVhd	-16026
resid	-16027
ungry	-16028
▁Hung	-16029
▁Shan	-16030
▁Shar	-16031
▁anno	-16032
▁batt	-16033
▁belo	-16034
▁damp	-16035
▁delu	-16036
▁easi	-16037
▁elem	-16038
▁elev	-16039
▁facs	-16040
▁fanc	-16041
▁grap	-16042
▁grav	-16043
▁inef	-16044
▁purp	-16045
▁purr	-16046
▁purs	-16047
▁ratt	-16048
▁recl	-16049
▁repe	-16050
▁supr	-16051
▁symb	-16052
▁tamp	-16053
ablecl	-16054
apered	-16055
arters	-16056
asters	-16057
atures	-16058
ferent	-16059
ierced	-16060
ifteen	-16061
laught	-16062
ndered	-16063
owered	-16064
ppered	-16065
rother	-16066
rought	-16067
ryside	-16068
sation	-16069
seless	-16070
sement	-16071
sition	-16072
spired	-16073
ssence	-16074
ssible	-16075
stream	-16076
suring	-16077
tching	-16078
tering	-16079
ternal	-16080
ucking	-16081
ucksia	-16082
uction	-16083
uffing	-16084
ulance	-16085
ulates	-16086
ulfill	-16087
ullets	-16088
ulling	-16089
ulture	-16090
umbeat	-16091
umbers	-16092
umines	-16093
umping	-16094
unches	-16095
undown	-16096
undred	-16097
ungent	-16098
urable	-16099
Cwa	-16100
Dzk	-16101
hDt	-16102
hod	-16103
luc	-16104
atQs	-16105
fens	-16106
ifix	-16107
ipod	-16108
ixth	-16109
onuc	-16110
riek	-16111
ship	-16112
soak	-16113
ualt	-16114
uggl	-16115
xual	-16116
▁Ang	-16117
▁Luc	-16118
▁Yod	-16119
▁fix	-16120
▁puz	-16121
WZyav	-16122
ciety	-16123
ecked	-16124
idual	-16125
igits	-16126
imens	-16127
lping	-16128
ndere	-16129
oaded	-16130
ortex	-16131
raits	-16132
rayed	-16133
reens	-16134
ruits	-16135
ugged	-16136
uggle	-16137
▁**11	-16138
▁**16	-16139
▁Pray	-16140
▁chok	-16141
[...]
